node {
  name: "global_step/Initializer/zeros"
  op: "Const"
  attr {
    key: "_class"
    value {
      list {
        s: "loc:@global_step"
      }
    }
  }
  attr {
    key: "_output_shapes"
    value {
      list {
        shape {
        }
      }
    }
  }
  attr {
    key: "dtype"
    value {
      type: DT_INT64
    }
  }
  attr {
    key: "value"
    value {
      tensor {
        dtype: DT_INT64
        tensor_shape {
        }
        int64_val: 0
      }
    }
  }
}
node {
  name: "global_step"
  op: "VariableV2"
  attr {
    key: "_class"
    value {
      list {
        s: "loc:@global_step"
      }
    }
  }
  attr {
    key: "_output_shapes"
    value {
      list {
        shape {
        }
      }
    }
  }
  attr {
    key: "container"
    value {
      s: ""
    }
  }
  attr {
    key: "dtype"
    value {
      type: DT_INT64
    }
  }
  attr {
    key: "shape"
    value {
      shape {
      }
    }
  }
  attr {
    key: "shared_name"
    value {
      s: ""
    }
  }
}
node {
  name: "global_step/Assign"
  op: "Assign"
  input: "global_step"
  input: "global_step/Initializer/zeros"
  attr {
    key: "T"
    value {
      type: DT_INT64
    }
  }
  attr {
    key: "_class"
    value {
      list {
        s: "loc:@global_step"
      }
    }
  }
  attr {
    key: "_output_shapes"
    value {
      list {
        shape {
        }
      }
    }
  }
  attr {
    key: "use_locking"
    value {
      b: true
    }
  }
  attr {
    key: "validate_shape"
    value {
      b: true
    }
  }
}
node {
  name: "global_step/read"
  op: "Identity"
  input: "global_step"
  attr {
    key: "T"
    value {
      type: DT_INT64
    }
  }
  attr {
    key: "_class"
    value {
      list {
        s: "loc:@global_step"
      }
    }
  }
  attr {
    key: "_output_shapes"
    value {
      list {
        shape {
        }
      }
    }
  }
}
node {
  name: "global_step/IsVariableInitialized"
  op: "IsVariableInitialized"
  input: "global_step"
  attr {
    key: "_class"
    value {
      list {
        s: "loc:@global_step"
      }
    }
  }
  attr {
    key: "_output_shapes"
    value {
      list {
        shape {
        }
      }
    }
  }
  attr {
    key: "dtype"
    value {
      type: DT_INT64
    }
  }
}
node {
  name: "global_step/cond/Switch"
  op: "Switch"
  input: "global_step/IsVariableInitialized"
  input: "global_step/IsVariableInitialized"
  attr {
    key: "T"
    value {
      type: DT_BOOL
    }
  }
  attr {
    key: "_output_shapes"
    value {
      list {
        shape {
        }
        shape {
        }
      }
    }
  }
}
node {
  name: "global_step/cond/switch_t"
  op: "Identity"
  input: "global_step/cond/Switch:1"
  attr {
    key: "T"
    value {
      type: DT_BOOL
    }
  }
  attr {
    key: "_output_shapes"
    value {
      list {
        shape {
        }
      }
    }
  }
}
node {
  name: "global_step/cond/switch_f"
  op: "Identity"
  input: "global_step/cond/Switch"
  attr {
    key: "T"
    value {
      type: DT_BOOL
    }
  }
  attr {
    key: "_output_shapes"
    value {
      list {
        shape {
        }
      }
    }
  }
}
node {
  name: "global_step/cond/pred_id"
  op: "Identity"
  input: "global_step/IsVariableInitialized"
  attr {
    key: "T"
    value {
      type: DT_BOOL
    }
  }
  attr {
    key: "_output_shapes"
    value {
      list {
        shape {
        }
      }
    }
  }
}
node {
  name: "global_step/cond/read"
  op: "Identity"
  input: "global_step/cond/read/Switch:1"
  attr {
    key: "T"
    value {
      type: DT_INT64
    }
  }
  attr {
    key: "_output_shapes"
    value {
      list {
        shape {
        }
      }
    }
  }
}
node {
  name: "global_step/cond/read/Switch"
  op: "RefSwitch"
  input: "global_step"
  input: "global_step/cond/pred_id"
  attr {
    key: "T"
    value {
      type: DT_INT64
    }
  }
  attr {
    key: "_class"
    value {
      list {
        s: "loc:@global_step"
      }
    }
  }
  attr {
    key: "_output_shapes"
    value {
      list {
        shape {
        }
        shape {
        }
      }
    }
  }
}
node {
  name: "global_step/cond/Switch_1"
  op: "Switch"
  input: "global_step/Initializer/zeros"
  input: "global_step/cond/pred_id"
  attr {
    key: "T"
    value {
      type: DT_INT64
    }
  }
  attr {
    key: "_class"
    value {
      list {
        s: "loc:@global_step"
      }
    }
  }
  attr {
    key: "_output_shapes"
    value {
      list {
        shape {
        }
        shape {
        }
      }
    }
  }
}
node {
  name: "global_step/cond/Merge"
  op: "Merge"
  input: "global_step/cond/Switch_1"
  input: "global_step/cond/read"
  attr {
    key: "N"
    value {
      i: 2
    }
  }
  attr {
    key: "T"
    value {
      type: DT_INT64
    }
  }
  attr {
    key: "_output_shapes"
    value {
      list {
        shape {
        }
        shape {
        }
      }
    }
  }
}
node {
  name: "global_step/add/y"
  op: "Const"
  attr {
    key: "_output_shapes"
    value {
      list {
        shape {
        }
      }
    }
  }
  attr {
    key: "dtype"
    value {
      type: DT_INT64
    }
  }
  attr {
    key: "value"
    value {
      tensor {
        dtype: DT_INT64
        tensor_shape {
        }
        int64_val: 0
      }
    }
  }
}
node {
  name: "global_step/add"
  op: "Add"
  input: "global_step/cond/Merge"
  input: "global_step/add/y"
  attr {
    key: "T"
    value {
      type: DT_INT64
    }
  }
  attr {
    key: "_output_shapes"
    value {
      list {
        shape {
        }
      }
    }
  }
}
node {
  name: "Const"
  op: "Const"
  device: "/device:CPU:0"
  attr {
    key: "_output_shapes"
    value {
      list {
        shape {
          dim {
            size: 173
          }
          dim {
            size: 1
          }
        }
      }
    }
  }
  attr {
    key: "dtype"
    value {
      type: DT_STRING
    }
  }
  attr {
    key: "value"
    value {
      tensor {
        dtype: DT_STRING
        tensor_shape {
          dim {
            size: 173
          }
          dim {
            size: 1
          }
        }
        string_val: "H"
        string_val: "H"
        string_val: "M"
        string_val: "M"
        string_val: "M"
        string_val: "H"
        string_val: "H"
        string_val: "H"
        string_val: "H"
        string_val: "H"
        string_val: "H"
        string_val: "M"
        string_val: "H"
        string_val: "M"
        string_val: "M"
        string_val: "H"
        string_val: "M"
        string_val: "H"
        string_val: "M"
        string_val: "H"
        string_val: "H"
        string_val: "M"
        string_val: "M"
        string_val: "M"
        string_val: "H"
        string_val: "M"
        string_val: "M"
        string_val: "M"
        string_val: "H"
        string_val: "M"
        string_val: "H"
        string_val: "M"
        string_val: "M"
        string_val: "H"
        string_val: "H"
        string_val: "H"
        string_val: "M"
        string_val: "H"
        string_val: "H"
        string_val: "H"
        string_val: "H"
        string_val: "M"
        string_val: "H"
        string_val: "H"
        string_val: "H"
        string_val: "H"
        string_val: "H"
        string_val: "H"
        string_val: "M"
        string_val: "M"
        string_val: "M"
        string_val: "H"
        string_val: "M"
        string_val: "H"
        string_val: "H"
        string_val: "H"
        string_val: "M"
        string_val: "M"
        string_val: "H"
        string_val: "H"
        string_val: "M"
        string_val: "M"
        string_val: "M"
        string_val: "H"
        string_val: "H"
        string_val: "H"
        string_val: "M"
        string_val: "H"
        string_val: "H"
        string_val: "H"
        string_val: "H"
        string_val: "M"
        string_val: "H"
        string_val: "H"
        string_val: "H"
        string_val: "H"
        string_val: "H"
        string_val: "H"
        string_val: "M"
        string_val: "H"
        string_val: "H"
        string_val: "H"
        string_val: "M"
        string_val: "M"
        string_val: "M"
        string_val: "H"
        string_val: "H"
        string_val: "M"
        string_val: "H"
        string_val: "H"
        string_val: "H"
        string_val: "H"
        string_val: "M"
        string_val: "H"
        string_val: "H"
        string_val: "M"
        string_val: "M"
        string_val: "M"
        string_val: "H"
        string_val: "H"
        string_val: "M"
        string_val: "H"
        string_val: "H"
        string_val: "H"
        string_val: "H"
        string_val: "M"
        string_val: "H"
        string_val: "H"
        string_val: "M"
        string_val: "H"
        string_val: "H"
        string_val: "H"
        string_val: "H"
        string_val: "M"
        string_val: "H"
        string_val: "H"
        string_val: "H"
        string_val: "M"
        string_val: "M"
        string_val: "H"
        string_val: "H"
        string_val: "H"
        string_val: "H"
        string_val: "H"
        string_val: "H"
        string_val: "M"
        string_val: "H"
        string_val: "M"
        string_val: "M"
        string_val: "H"
        string_val: "M"
        string_val: "H"
        string_val: "H"
        string_val: "H"
        string_val: "H"
        string_val: "H"
        string_val: "M"
        string_val: "H"
        string_val: "H"
        string_val: "H"
        string_val: "H"
        string_val: "H"
        string_val: "M"
        string_val: "M"
        string_val: "H"
        string_val: "H"
        string_val: "M"
        string_val: "H"
        string_val: "M"
        string_val: "H"
        string_val: "H"
        string_val: "H"
        string_val: "H"
        string_val: "M"
        string_val: "H"
        string_val: "M"
        string_val: "M"
        string_val: "M"
        string_val: "M"
        string_val: "H"
        string_val: "H"
        string_val: "M"
        string_val: "H"
        string_val: "H"
        string_val: "H"
        string_val: "H"
        string_val: "H"
        string_val: "H"
        string_val: "M"
        string_val: "M"
        string_val: "H"
        string_val: "M"
        string_val: "H"
      }
    }
  }
}
node {
  name: "Const_1"
  op: "Const"
  device: "/device:CPU:0"
  attr {
    key: "_output_shapes"
    value {
      list {
        shape {
          dim {
            size: 173
          }
          dim {
            size: 1
          }
        }
      }
    }
  }
  attr {
    key: "dtype"
    value {
      type: DT_INT64
    }
  }
  attr {
    key: "value"
    value {
      tensor {
        dtype: DT_INT64
        tensor_shape {
          dim {
            size: 173
          }
          dim {
            size: 1
          }
        }
        tensor_content: "K\000\000\000\000\000\000\000K\000\000\000\000\000\000\000:\000\000\000\000\000\000\000T\000\000\000\000\000\000\000J\000\000\000\000\000\000\000B\000\000\000\000\000\000\000G\000\000\000\000\000\000\000)\000\000\000\000\000\000\000M\000\000\000\000\000\000\000R\000\000\000\000\000\000\000>\000\000\000\000\000\000\000M\000\000\000\000\000\000\000M\000\000\000\000\000\000\000)\000\000\000\000\000\000\000K\000\000\000\000\000\000\000M\000\000\000\000\000\000\000P\000\000\000\000\000\000\0005\000\000\000\000\000\000\000:\000\000\000\000\000\000\000\'\000\000\000\000\000\000\000G\000\000\000\000\000\000\000<\000\000\000\000\000\000\0006\000\000\000\000\000\000\000L\000\000\000\000\000\000\000\036\000\000\000\000\000\000\000W\000\000\000\000\000\000\000M\000\000\000\000\000\000\000P\000\000\000\000\000\000\000=\000\000\000\000\000\000\000G\000\000\000\000\000\000\000?\000\000\000\000\000\000\000T\000\000\000\000\000\000\000U\000\000\000\000\000\000\000H\000\000\000\000\000\000\000F\000\000\000\000\000\000\000<\000\000\000\000\000\000\000K\000\000\000\000\000\000\0009\000\000\000\000\000\000\000K\000\000\000\000\000\000\0000\000\000\000\000\000\000\000H\000\000\000\000\000\000\000M\000\000\000\000\000\000\000J\000\000\000\000\000\000\000&\000\000\000\000\000\000\000N\000\000\000\000\000\000\000J\000\000\000\000\000\000\000\026\000\000\000\000\000\000\0007\000\000\000\000\000\000\000T\000\000\000\000\000\000\000G\000\000\000\000\000\000\000g\000\000\000\000\000\000\000P\000\000\000\000\000\000\000J\000\000\000\000\000\000\000K\000\000\000\000\000\000\000M\000\000\000\000\000\000\000C\000\000\000\000\000\000\000I\000\000\000\000\000\000\000M\000\000\000\000\000\000\000&\000\000\000\000\000\000\000M\000\000\000\000\000\000\000B\000\000\000\000\000\000\000\036\000\000\000\000\000\000\000U\000\000\000\000\000\000\000R\000\000\000\000\000\000\000L\000\000\000\000\000\000\000N\000\000\000\000\000\000\000%\000\000\000\000\000\000\000B\000\000\000\000\000\000\000B\000\000\000\000\000\000\000L\000\000\000\000\000\000\000?\000\000\000\000\000\000\000B\000\000\000\000\000\000\000@\000\000\000\000\000\000\000(\000\000\000\000\000\000\000@\000\000\000\000\000\000\000\"\000\000\000\000\000\000\000K\000\000\000\000\000\000\000R\000\000\000\000\000\000\000P\000\000\000\000\000\000\000W\000\000\000\000\000\000\000;\000\000\000\000\000\000\000L\000\000\000\000\000\000\000N\000\000\000\000\000\000\000%\000\000\000\000\000\000\000H\000\000\000\000\000\000\000P\000\000\000\000\000\000\000(\000\000\000\000\000\000\000J\000\000\000\000\000\000\0006\000\000\000\000\000\000\000E\000\000\000\000\000\000\000C\000\000\000\000\000\000\000I\000\000\000\000\000\000\000%\000\000\000\000\000\000\0008\000\000\000\000\000\000\000H\000\000\000\000\000\000\0008\000\000\000\000\000\000\000K\000\000\000\000\000\000\000T\000\000\000\000\000\000\000\031\000\000\000\000\000\000\000O\000\000\000\000\000\000\0001\000\000\000\000\000\000\000A\000\000\000\000\000\000\000R\000\000\000\000\000\000\000H\000\000\000\000\000\000\000:\000\000\000\000\000\000\000H\000\000\000\000\000\000\000E\000\000\000\000\000\000\000L\000\000\000\000\000\000\000P\000\000\000\000\000\000\000N\000\000\000\000\000\000\000K\000\000\000\000\000\000\000E\000\000\000\000\000\000\000>\000\000\000\000\000\000\000G\000\000\000\000\000\000\000-\000\000\000\000\000\000\000:\000\000\000\000\000\000\0002\000\000\000\000\000\000\000K\000\000\000\000\000\000\000N\000\000\000\000\000\000\0009\000\000\000\000\000\000\000K\000\000\000\000\000\000\000I\000\000\000\000\000\000\000H\000\000\000\000\000\000\000\037\000\000\000\000\000\000\000X\000\000\000\000\000\000\000\027\000\000\000\000\000\000\000S\000\000\000\000\000\000\0009\000\000\000\000\000\000\000N\000\000\000\000\000\000\000E\000\000\000\000\000\000\000Q\000\000\000\000\000\000\000A\000\000\000\000\000\000\000Q\000\000\000\000\000\000\000I\000\000\000\000\000\000\000:\000\000\000\000\000\000\000:\000\000\000\000\000\000\000I\000\000\000\000\000\000\000R\000\000\000\000\000\000\000N\000\000\000\000\000\000\000;\000\000\000\000\000\000\000S\000\000\000\000\000\000\000H\000\000\000\000\000\000\000+\000\000\000\000\000\000\000<\000\000\000\000\000\000\0004\000\000\000\000\000\000\000G\000\000\000\000\000\000\000N\000\000\000\000\000\000\000@\000\000\000\000\000\000\000<\000\000\000\000\000\000\000A\000\000\000\000\000\000\000;\000\000\000\000\000\000\0003\000\000\000\000\000\000\000P\000\000\000\000\000\000\000P\000\000\000\000\000\000\0003\000\000\000\000\000\000\000:\000\000\000\000\000\000\000<\000\000\000\000\000\000\000H\000\000\000\000\000\000\000O\000\000\000\000\000\000\000@\000\000\000\000\000\000\000C\000\000\000\000\000\000\000V\000\000\000\000\000\000\000J\000\000\000\000\000\000\000C\000\000\000\000\000\000\000B\000\000\000\000\000\000\000\022\000\000\000\000\000\000\000?\000\000\000\000\000\000\000@\000\000\000\000\000\000\000N\000\000\000\000\000\000\000-\000\000\000\000\000\000\000>\000\000\000\000\000\000\000K\000\000\000\000\000\000\000G\000\000\000\000\000\000\000"
      }
    }
  }
}
node {
  name: "Const_2"
  op: "Const"
  device: "/device:CPU:0"
  attr {
    key: "_output_shapes"
    value {
      list {
        shape {
          dim {
            size: 173
          }
          dim {
            size: 1
          }
        }
      }
    }
  }
  attr {
    key: "dtype"
    value {
      type: DT_STRING
    }
  }
  attr {
    key: "value"
    value {
      tensor {
        dtype: DT_STRING
        tensor_shape {
          dim {
            size: 173
          }
          dim {
            size: 1
          }
        }
        string_val: "PABD"
        string_val: "PABD"
        string_val: "NRL"
        string_val: "PULM"
        string_val: "PULM"
        string_val: "PULM"
        string_val: "ICC"
        string_val: "PULM"
        string_val: "MISC"
        string_val: "PULM"
        string_val: "MISC"
        string_val: "PULM"
        string_val: "ICC"
        string_val: "NRL"
        string_val: "PSTC"
        string_val: "PABD"
        string_val: "PABD"
        string_val: "NRL"
        string_val: "NRL"
        string_val: "NRL"
        string_val: "MISC"
        string_val: "PABD"
        string_val: "NRL"
        string_val: "PULM"
        string_val: "NRL"
        string_val: "PABD"
        string_val: "PULM"
        string_val: "MISC"
        string_val: "ICC"
        string_val: "PULM"
        string_val: "PULM"
        string_val: "ICC"
        string_val: "PABD"
        string_val: "PABD"
        string_val: "PULM"
        string_val: "PULM"
        string_val: "ICC"
        string_val: "MISC"
        string_val: "PABD"
        string_val: "NRL"
        string_val: "PSTC"
        string_val: "PULM"
        string_val: "PULM"
        string_val: "NRL"
        string_val: "PABD"
        string_val: "PABD"
        string_val: "MISC"
        string_val: "PULM"
        string_val: "PABD"
        string_val: "PABD"
        string_val: "PABD"
        string_val: "PULM"
        string_val: "PABD"
        string_val: "PULM"
        string_val: "NRL"
        string_val: "PULM"
        string_val: "MISC"
        string_val: "PSTC"
        string_val: "NRL"
        string_val: "PULM"
        string_val: "NRL"
        string_val: "MISC"
        string_val: "ICC"
        string_val: "PULM"
        string_val: "PULM"
        string_val: "PABD"
        string_val: "PABD"
        string_val: "PULM"
        string_val: "MISC"
        string_val: "MISC"
        string_val: "ICC"
        string_val: "PULM"
        string_val: "ICC"
        string_val: "PABD"
        string_val: "ICC"
        string_val: "NRL"
        string_val: "MISC"
        string_val: "PABD"
        string_val: "PABD"
        string_val: "PABD"
        string_val: "MISC"
        string_val: "ICC"
        string_val: "PULM"
        string_val: "PULM"
        string_val: "ICC"
        string_val: "ICC"
        string_val: "PULM"
        string_val: "PABD"
        string_val: "ICC"
        string_val: "PULM"
        string_val: "PULM"
        string_val: "PULM"
        string_val: "PULM"
        string_val: "PULM"
        string_val: "PABD"
        string_val: "PABD"
        string_val: "ICC"
        string_val: "PABD"
        string_val: "NRL"
        string_val: "MISC"
        string_val: "NRL"
        string_val: "PULM"
        string_val: "MISC"
        string_val: "MISC"
        string_val: "NRL"
        string_val: "PSTC"
        string_val: "PULM"
        string_val: "PABD"
        string_val: "ICC"
        string_val: "ICC"
        string_val: "PSTC"
        string_val: "PULM"
        string_val: "MISC"
        string_val: "ICC"
        string_val: "NRL"
        string_val: "PABD"
        string_val: "NRL"
        string_val: "PABD"
        string_val: "PULM"
        string_val: "ICC"
        string_val: "NRL"
        string_val: "ICC"
        string_val: "NRL"
        string_val: "PULM"
        string_val: "PABD"
        string_val: "NRL"
        string_val: "PABD"
        string_val: "NRL"
        string_val: "MISC"
        string_val: "PULM"
        string_val: "ICC"
        string_val: "ICC"
        string_val: "PABD"
        string_val: "PABD"
        string_val: "NRL"
        string_val: "MISC"
        string_val: "MISC"
        string_val: "PABD"
        string_val: "PULM"
        string_val: "PSTC"
        string_val: "PABD"
        string_val: "PABD"
        string_val: "NRL"
        string_val: "PSTC"
        string_val: "MISC"
        string_val: "PULM"
        string_val: "MISC"
        string_val: "ICC"
        string_val: "NRL"
        string_val: "ICC"
        string_val: "PABD"
        string_val: "PULM"
        string_val: "PULM"
        string_val: "PABD"
        string_val: "MISC"
        string_val: "PULM"
        string_val: "PABD"
        string_val: "PABD"
        string_val: "PABD"
        string_val: "PULM"
        string_val: "NRL"
        string_val: "PULM"
        string_val: "PULM"
        string_val: "PULM"
        string_val: "MISC"
        string_val: "NRL"
        string_val: "PABD"
        string_val: "ICC"
        string_val: "PULM"
        string_val: "NRL"
        string_val: "PULM"
        string_val: "ICC"
        string_val: "MISC"
      }
    }
  }
}
node {
  name: "Const_3"
  op: "Const"
  device: "/device:CPU:0"
  attr {
    key: "_output_shapes"
    value {
      list {
        shape {
          dim {
            size: 173
          }
          dim {
            size: 1
          }
        }
      }
    }
  }
  attr {
    key: "dtype"
    value {
      type: DT_STRING
    }
  }
  attr {
    key: "value"
    value {
      tensor {
        dtype: DT_STRING
        tensor_shape {
          dim {
            size: 173
          }
          dim {
            size: 1
          }
        }
        string_val: "PULM"
        string_val: "PULM"
        string_val: "NRL"
        string_val: "PULM"
        string_val: "PULM"
        string_val: "PULM"
        string_val: "ICC"
        string_val: "PULM"
        string_val: "PULM"
        string_val: "PULM"
        string_val: "PULM"
        string_val: "PULM"
        string_val: "ICC"
        string_val: "NRL"
        string_val: "ICC"
        string_val: "PULM"
        string_val: "PABD"
        string_val: "NRL"
        string_val: "NRL"
        string_val: "NRL"
        string_val: "PULM"
        string_val: "PABD"
        string_val: "NRL"
        string_val: "PULM"
        string_val: "NRL"
        string_val: "PABD"
        string_val: "PULM"
        string_val: "PULM"
        string_val: "ICC"
        string_val: "PULM"
        string_val: "PULM"
        string_val: "ICC"
        string_val: "PABD"
        string_val: "PABD"
        string_val: "PULM"
        string_val: "ICC"
        string_val: "ICC"
        string_val: "PULM"
        string_val: "PULM"
        string_val: "NRL"
        string_val: "ICC"
        string_val: "PULM"
        string_val: "PULM"
        string_val: "NRL"
        string_val: "PABD"
        string_val: "PABD"
        string_val: "NRL"
        string_val: "PULM"
        string_val: "PABD"
        string_val: "PABD"
        string_val: "PABD"
        string_val: "PULM"
        string_val: "PABD"
        string_val: "PULM"
        string_val: "NRL"
        string_val: "PULM"
        string_val: "MISC"
        string_val: "ICC"
        string_val: "NRL"
        string_val: "PULM"
        string_val: "NRL"
        string_val: "MISC"
        string_val: "ICC"
        string_val: "PULM"
        string_val: "ICC"
        string_val: "PABD"
        string_val: "PULM"
        string_val: "ICC"
        string_val: "MISC"
        string_val: "NRL"
        string_val: "ICC"
        string_val: "PULM"
        string_val: "ICC"
        string_val: "PABD"
        string_val: "ICC"
        string_val: "NRL"
        string_val: "PULM"
        string_val: "PABD"
        string_val: "PABD"
        string_val: "PABD"
        string_val: "MISC"
        string_val: "ICC"
        string_val: "PULM"
        string_val: "PULM"
        string_val: "ICC"
        string_val: "ICC"
        string_val: "PULM"
        string_val: "PABD"
        string_val: "ICC"
        string_val: "PULM"
        string_val: "PULM"
        string_val: "ICC"
        string_val: "PULM"
        string_val: "PULM"
        string_val: "PABD"
        string_val: "PABD"
        string_val: "ICC"
        string_val: "PABD"
        string_val: "NRL"
        string_val: "MISC"
        string_val: "NRL"
        string_val: "PULM"
        string_val: "MISC"
        string_val: "PABD"
        string_val: "NRL"
        string_val: "ICC"
        string_val: "PULM"
        string_val: "ICC"
        string_val: "ICC"
        string_val: "ICC"
        string_val: "ICC"
        string_val: "PULM"
        string_val: "PABD"
        string_val: "ICC"
        string_val: "NRL"
        string_val: "PABD"
        string_val: "NRL"
        string_val: "PABD"
        string_val: "PULM"
        string_val: "ICC"
        string_val: "PULM"
        string_val: "PULM"
        string_val: "NRL"
        string_val: "PULM"
        string_val: "PABD"
        string_val: "PULM"
        string_val: "PABD"
        string_val: "NRL"
        string_val: "ICC"
        string_val: "PULM"
        string_val: "ICC"
        string_val: "ICC"
        string_val: "PULM"
        string_val: "PABD"
        string_val: "NRL"
        string_val: "PULM"
        string_val: "MISC"
        string_val: "PABD"
        string_val: "PULM"
        string_val: "PULM"
        string_val: "PABD"
        string_val: "PULM"
        string_val: "NRL"
        string_val: "PULM"
        string_val: "MISC"
        string_val: "ICC"
        string_val: "ICC"
        string_val: "ICC"
        string_val: "NRL"
        string_val: "ICC"
        string_val: "PABD"
        string_val: "PULM"
        string_val: "PULM"
        string_val: "MISC"
        string_val: "MISC"
        string_val: "PULM"
        string_val: "PABD"
        string_val: "PABD"
        string_val: "PABD"
        string_val: "PULM"
        string_val: "NRL"
        string_val: "PULM"
        string_val: "PULM"
        string_val: "PULM"
        string_val: "MISC"
        string_val: "NRL"
        string_val: "ICC"
        string_val: "ICC"
        string_val: "PULM"
        string_val: "PULM"
        string_val: "PULM"
        string_val: "ICC"
        string_val: "PULM"
      }
    }
  }
}
node {
  name: "Const_4"
  op: "Const"
  device: "/device:CPU:0"
  attr {
    key: "_output_shapes"
    value {
      list {
        shape {
          dim {
            size: 173
          }
          dim {
            size: 1
          }
        }
      }
    }
  }
  attr {
    key: "dtype"
    value {
      type: DT_STRING
    }
  }
  attr {
    key: "value"
    value {
      tensor {
        dtype: DT_STRING
        tensor_shape {
          dim {
            size: 173
          }
          dim {
            size: 1
          }
        }
        string_val: "PULM1"
        string_val: "PULM1"
        string_val: "NRL"
        string_val: "PULM1"
        string_val: "PULM1"
        string_val: "PULM1"
        string_val: "PULM2"
        string_val: "PULM1"
        string_val: "PULM1"
        string_val: "PULM1"
        string_val: "PULM1"
        string_val: "PULM1"
        string_val: "PULM2"
        string_val: "NRL"
        string_val: "PULM2"
        string_val: "PULM1"
        string_val: "PULM2"
        string_val: "NRL"
        string_val: "NRL"
        string_val: "NRL"
        string_val: "PULM1"
        string_val: "PULM2"
        string_val: "NRL"
        string_val: "PULM1"
        string_val: "NRL"
        string_val: "PULM2"
        string_val: "PULM1"
        string_val: "PULM1"
        string_val: "PULM2"
        string_val: "PULM1"
        string_val: "PULM1"
        string_val: "PULM2"
        string_val: "PULM2"
        string_val: "PULM2"
        string_val: "PULM1"
        string_val: "PULM2"
        string_val: "PULM2"
        string_val: "PULM1"
        string_val: "PULM1"
        string_val: "NRL"
        string_val: "PULM2"
        string_val: "PULM1"
        string_val: "PULM1"
        string_val: "NRL"
        string_val: "PULM2"
        string_val: "PULM2"
        string_val: "NRL"
        string_val: "PULM1"
        string_val: "PULM2"
        string_val: "PULM2"
        string_val: "PULM2"
        string_val: "PULM1"
        string_val: "PULM2"
        string_val: "PULM1"
        string_val: "NRL"
        string_val: "PULM1"
        string_val: "PULM2"
        string_val: "PULM2"
        string_val: "NRL"
        string_val: "PULM1"
        string_val: "NRL"
        string_val: "PULM2"
        string_val: "PULM2"
        string_val: "PULM1"
        string_val: "PULM2"
        string_val: "PULM2"
        string_val: "PULM1"
        string_val: "PULM2"
        string_val: "PULM2"
        string_val: "NRL"
        string_val: "PULM2"
        string_val: "PULM1"
        string_val: "PULM2"
        string_val: "PULM2"
        string_val: "PULM2"
        string_val: "NRL"
        string_val: "PULM1"
        string_val: "PULM2"
        string_val: "PULM2"
        string_val: "PULM2"
        string_val: "PULM2"
        string_val: "PULM2"
        string_val: "PULM1"
        string_val: "PULM1"
        string_val: "PULM2"
        string_val: "PULM2"
        string_val: "PULM1"
        string_val: "PULM2"
        string_val: "PULM2"
        string_val: "PULM1"
        string_val: "PULM1"
        string_val: "PULM2"
        string_val: "PULM1"
        string_val: "PULM1"
        string_val: "PULM2"
        string_val: "PULM2"
        string_val: "PULM2"
        string_val: "PULM2"
        string_val: "NRL"
        string_val: "PULM2"
        string_val: "NRL"
        string_val: "PULM1"
        string_val: "PULM2"
        string_val: "PULM2"
        string_val: "NRL"
        string_val: "PULM2"
        string_val: "PULM1"
        string_val: "PULM2"
        string_val: "PULM2"
        string_val: "PULM2"
        string_val: "PULM2"
        string_val: "PULM1"
        string_val: "PULM2"
        string_val: "PULM2"
        string_val: "NRL"
        string_val: "PULM2"
        string_val: "NRL"
        string_val: "PULM2"
        string_val: "PULM1"
        string_val: "PULM2"
        string_val: "PULM1"
        string_val: "PULM1"
        string_val: "NRL"
        string_val: "PULM1"
        string_val: "PULM2"
        string_val: "PULM1"
        string_val: "PULM2"
        string_val: "NRL"
        string_val: "PULM2"
        string_val: "PULM1"
        string_val: "PULM2"
        string_val: "PULM2"
        string_val: "PULM1"
        string_val: "PULM2"
        string_val: "NRL"
        string_val: "PULM1"
        string_val: "PULM2"
        string_val: "PULM2"
        string_val: "PULM1"
        string_val: "PULM1"
        string_val: "PULM2"
        string_val: "PULM1"
        string_val: "NRL"
        string_val: "PULM1"
        string_val: "PULM2"
        string_val: "PULM2"
        string_val: "PULM2"
        string_val: "PULM2"
        string_val: "NRL"
        string_val: "PULM2"
        string_val: "PULM2"
        string_val: "PULM1"
        string_val: "PULM1"
        string_val: "PULM2"
        string_val: "PULM2"
        string_val: "PULM1"
        string_val: "PULM2"
        string_val: "PULM2"
        string_val: "PULM2"
        string_val: "PULM1"
        string_val: "NRL"
        string_val: "PULM1"
        string_val: "PULM1"
        string_val: "PULM1"
        string_val: "PULM2"
        string_val: "NRL"
        string_val: "PULM2"
        string_val: "PULM2"
        string_val: "PULM1"
        string_val: "PULM1"
        string_val: "PULM1"
        string_val: "PULM2"
        string_val: "PULM1"
      }
    }
  }
}
node {
  name: "Const_5"
  op: "Const"
  device: "/device:CPU:0"
  attr {
    key: "_output_shapes"
    value {
      list {
        shape {
          dim {
            size: 173
          }
          dim {
            size: 1
          }
        }
      }
    }
  }
  attr {
    key: "dtype"
    value {
      type: DT_STRING
    }
  }
  attr {
    key: "value"
    value {
      tensor {
        dtype: DT_STRING
        tensor_shape {
          dim {
            size: 173
          }
          dim {
            size: 1
          }
        }
        string_val: "PS"
        string_val: "PS"
        string_val: "AC"
        string_val: "AC"
        string_val: "AC"
        string_val: "AC"
        string_val: "AC"
        string_val: "PS"
        string_val: "AC"
        string_val: "AC"
        string_val: "AC"
        string_val: "AC"
        string_val: "AC"
        string_val: "PS"
        string_val: "PS"
        string_val: "PS"
        string_val: "PS"
        string_val: "PS"
        string_val: "AC"
        string_val: "PS"
        string_val: "PS"
        string_val: "AC"
        string_val: "PS"
        string_val: "PS"
        string_val: "PS"
        string_val: "PS"
        string_val: "AC"
        string_val: "PS"
        string_val: "PS"
        string_val: "AC"
        string_val: "PS"
        string_val: "AC"
        string_val: "PS"
        string_val: "AC"
        string_val: "PS"
        string_val: "AC"
        string_val: "AC"
        string_val: "PS"
        string_val: "PS"
        string_val: "AC"
        string_val: "PS"
        string_val: "AC"
        string_val: "AC"
        string_val: "PS"
        string_val: "PS"
        string_val: "AC"
        string_val: "AC"
        string_val: "PS"
        string_val: "AC"
        string_val: "AC"
        string_val: "AC"
        string_val: "PS"
        string_val: "PS"
        string_val: "AC"
        string_val: "PS"
        string_val: "AC"
        string_val: "PS"
        string_val: "PS"
        string_val: "AC"
        string_val: "AC"
        string_val: "PS"
        string_val: "AC"
        string_val: "AC"
        string_val: "AC"
        string_val: "PS"
        string_val: "AC"
        string_val: "AC"
        string_val: "AC"
        string_val: "AC"
        string_val: "AC"
        string_val: "PS"
        string_val: "AC"
        string_val: "AC"
        string_val: "AC"
        string_val: "AC"
        string_val: "AC"
        string_val: "PS"
        string_val: "AC"
        string_val: "AC"
        string_val: "PS"
        string_val: "AC"
        string_val: "AC"
        string_val: "AC"
        string_val: "AC"
        string_val: "PS"
        string_val: "AC"
        string_val: "AC"
        string_val: "PS"
        string_val: "AC"
        string_val: "PS"
        string_val: "AC"
        string_val: "AC"
        string_val: "AC"
        string_val: "PS"
        string_val: "PS"
        string_val: "PS"
        string_val: "AC"
        string_val: "PS"
        string_val: "PS"
        string_val: "AC"
        string_val: "PS"
        string_val: "AC"
        string_val: "AC"
        string_val: "PS"
        string_val: "PS"
        string_val: "AC"
        string_val: "AC"
        string_val: "PS"
        string_val: "AC"
        string_val: "AC"
        string_val: "PS"
        string_val: "PS"
        string_val: "PS"
        string_val: "AC"
        string_val: "AC"
        string_val: "PS"
        string_val: "PS"
        string_val: "AC"
        string_val: "AC"
        string_val: "PS"
        string_val: "PS"
        string_val: "PS"
        string_val: "PS"
        string_val: "AC"
        string_val: "AC"
        string_val: "AC"
        string_val: "AC"
        string_val: "AC"
        string_val: "AC"
        string_val: "AC"
        string_val: "AC"
        string_val: "AC"
        string_val: "PS"
        string_val: "PS"
        string_val: "PS"
        string_val: "PS"
        string_val: "AC"
        string_val: "AC"
        string_val: "AC"
        string_val: "PS"
        string_val: "PS"
        string_val: "PS"
        string_val: "PS"
        string_val: "PS"
        string_val: "AC"
        string_val: "AC"
        string_val: "AC"
        string_val: "PS"
        string_val: "AC"
        string_val: "PS"
        string_val: "AC"
        string_val: "AC"
        string_val: "AC"
        string_val: "PS"
        string_val: "AC"
        string_val: "AC"
        string_val: "AC"
        string_val: "PS"
        string_val: "AC"
        string_val: "AC"
        string_val: "PS"
        string_val: "AC"
        string_val: "PS"
        string_val: "AC"
        string_val: "AC"
        string_val: "PS"
        string_val: "AC"
        string_val: "PS"
        string_val: "PS"
        string_val: "AC"
        string_val: "PS"
        string_val: "AC"
        string_val: "PS"
      }
    }
  }
}
node {
  name: "Const_6"
  op: "Const"
  device: "/device:CPU:0"
  attr {
    key: "_output_shapes"
    value {
      list {
        shape {
          dim {
            size: 173
          }
          dim {
            size: 1
          }
        }
      }
    }
  }
  attr {
    key: "dtype"
    value {
      type: DT_INT64
    }
  }
  attr {
    key: "value"
    value {
      tensor {
        dtype: DT_INT64
        tensor_shape {
          dim {
            size: 173
          }
          dim {
            size: 1
          }
        }
        tensor_content: "x\000\000\000\000\000\000\000x\000\000\000\000\000\000\000\252\000\000\000\000\000\000\000}\000\000\000\000\000\000\000n\000\000\000\000\000\000\000\214\000\000\000\000\000\000\000\224\000\000\000\000\000\000\000\214\000\000\000\000\000\000\000\240\000\000\000\000\000\000\000\214\000\000\000\000\000\000\000\202\000\000\000\000\000\000\000\264\000\000\000\000\000\000\000n\000\000\000\000\000\000\000\202\000\000\000\000\000\000\000d\000\000\000\000\000\000\000n\000\000\000\000\000\000\000\226\000\000\000\000\000\000\000\214\000\000\000\000\000\000\000\257\000\000\000\000\000\000\000x\000\000\000\000\000\000\000x\000\000\000\000\000\000\000\233\000\000\000\000\000\000\000\202\000\000\000\000\000\000\000\202\000\000\000\000\000\000\000\240\000\000\000\000\000\000\000\214\000\000\000\000\000\000\000x\000\000\000\000\000\000\000\214\000\000\000\000\000\000\000\264\000\000\000\000\000\000\000\245\000\000\000\000\000\000\000x\000\000\000\000\000\000\000x\000\000\000\000\000\000\000x\000\000\000\000\000\000\000\270\000\000\000\000\000\000\000d\000\000\000\000\000\000\000\240\000\000\000\000\000\000\000q\000\000\000\000\000\000\000\202\000\000\000\000\000\000\000x\000\000\000\000\000\000\000\240\000\000\000\000\000\000\000\202\000\000\000\000\000\000\000\232\000\000\000\000\000\000\000\226\000\000\000\000\000\000\000\205\000\000\000\000\000\000\000n\000\000\000\000\000\000\000\202\000\000\000\000\000\000\000\202\000\000\000\000\000\000\000d\000\000\000\000\000\000\000x\000\000\000\000\000\000\000\214\000\000\000\000\000\000\000\226\000\000\000\000\000\000\000Z\000\000\000\000\000\000\000n\000\000\000\000\000\000\000\226\000\000\000\000\000\000\000n\000\000\000\000\000\000\000~\000\000\000\000\000\000\000\214\000\000\000\000\000\000\000\214\000\000\000\000\000\000\000\206\000\000\000\000\000\000\000\214\000\000\000\000\000\000\000\214\000\000\000\000\000\000\000\202\000\000\000\000\000\000\000\252\000\000\000\000\000\000\000\221\000\000\000\000\000\000\000n\000\000\000\000\000\000\000\202\000\000\000\000\000\000\000\177\000\000\000\000\000\000\000\207\000\000\000\000\000\000\000\177\000\000\000\000\000\000\000n\000\000\000\000\000\000\000\202\000\000\000\000\000\000\000\221\000\000\000\000\000\000\000\202\000\000\000\000\000\000\000\200\000\000\000\000\000\000\000\207\000\000\000\000\000\000\000\276\000\000\000\000\000\000\000\214\000\000\000\000\000\000\000d\000\000\000\000\000\000\000\257\000\000\000\000\000\000\000\214\000\000\000\000\000\000\000\202\000\000\000\000\000\000\000n\000\000\000\000\000\000\000\214\000\000\000\000\000\000\000q\000\000\000\000\000\000\000x\000\000\000\000\000\000\000\207\000\000\000\000\000\000\000\202\000\000\000\000\000\000\000x\000\000\000\000\000\000\000x\000\000\000\000\000\000\000\214\000\000\000\000\000\000\000\214\000\000\000\000\000\000\000\214\000\000\000\000\000\000\000i\000\000\000\000\000\000\000\202\000\000\000\000\000\000\000n\000\000\000\000\000\000\000\214\000\000\000\000\000\000\000~\000\000\000\000\000\000\000x\000\000\000\000\000\000\000\226\000\000\000\000\000\000\000w\000\000\000\000\000\000\000\202\000\000\000\000\000\000\000\264\000\000\000\000\000\000\000\240\000\000\000\000\000\000\000\202\000\000\000\000\000\000\000\252\000\000\000\000\000\000\000d\000\000\000\000\000\000\000\206\000\000\000\000\000\000\000\240\000\000\000\000\000\000\000\214\000\000\000\000\000\000\000\177\000\000\000\000\000\000\000\214\000\000\000\000\000\000\000\214\000\000\000\000\000\000\000x\000\000\000\000\000\000\000\214\000\000\000\000\000\000\000\226\000\000\000\000\000\000\000n\000\000\000\000\000\000\000\202\000\000\000\000\000\000\000\252\000\000\000\000\000\000\000\226\000\000\000\000\000\000\000n\000\000\000\000\000\000\000\202\000\000\000\000\000\000\000Z\000\000\000\000\000\000\000x\000\000\000\000\000\000\000\214\000\000\000\000\000\000\000\214\000\000\000\000\000\000\000\214\000\000\000\000\000\000\000~\000\000\000\000\000\000\000x\000\000\000\000\000\000\000\212\000\000\000\000\000\000\000\207\000\000\000\000\000\000\000d\000\000\000\000\000\000\000\240\000\000\000\000\000\000\000n\000\000\000\000\000\000\000x\000\000\000\000\000\000\000x\000\000\000\000\000\000\000x\000\000\000\000\000\000\000\221\000\000\000\000\000\000\000\252\000\000\000\000\000\000\000\207\000\000\000\000\000\000\000\214\000\000\000\000\000\000\000\214\000\000\000\000\000\000\000n\000\000\000\000\000\000\000\226\000\000\000\000\000\000\000n\000\000\000\000\000\000\000\252\000\000\000\000\000\000\000\264\000\000\000\000\000\000\000\214\000\000\000\000\000\000\000\220\000\000\000\000\000\000\000\276\000\000\000\000\000\000\000x\000\000\000\000\000\000\000\177\000\000\000\000\000\000\000\257\000\000\000\000\000\000\000\202\000\000\000\000\000\000\000\202\000\000\000\000\000\000\000\202\000\000\000\000\000\000\000i\000\000\000\000\000\000\000\211\000\000\000\000\000\000\000n\000\000\000\000\000\000\000x\000\000\000\000\000\000\000\202\000\000\000\000\000\000\000\226\000\000\000\000\000\000\000\264\000\000\000\000\000\000\000d\000\000\000\000\000\000\000{\000\000\000\000\000\000\000\234\000\000\000\000\000\000\000\202\000\000\000\000\000\000\000\202\000\000\000\000\000\000\000x\000\000\000\000\000\000\000n\000\000\000\000\000\000\000\240\000\000\000\000\000\000\000\214\000\000\000\000\000\000\000n\000\000\000\000\000\000\000x\000\000\000\000\000\000\000"
      }
    }
  }
}
node {
  name: "Const_7"
  op: "Const"
  device: "/device:CPU:0"
  attr {
    key: "_output_shapes"
    value {
      list {
        shape {
          dim {
            size: 173
          }
          dim {
            size: 1
          }
        }
      }
    }
  }
  attr {
    key: "dtype"
    value {
      type: DT_INT64
    }
  }
  attr {
    key: "value"
    value {
      tensor {
        dtype: DT_INT64
        tensor_shape {
          dim {
            size: 173
          }
          dim {
            size: 1
          }
        }
        tensor_content: "2\000\000\000\000\000\000\0002\000\000\000\000\000\000\000P\000\000\000\000\000\000\000)\000\000\000\000\000\000\0002\000\000\000\000\000\000\000A\000\000\000\000\000\000\000>\000\000\000\000\000\000\000F\000\000\000\000\000\000\000F\000\000\000\000\000\000\0009\000\000\000\000\000\000\000J\000\000\000\000\000\000\000Z\000\000\000\000\000\000\0002\000\000\000\000\000\000\000F\000\000\000\000\000\000\000(\000\000\000\000\000\000\0002\000\000\000\000\000\000\000F\000\000\000\000\000\000\000F\000\000\000\000\000\000\000K\000\000\000\000\000\000\000<\000\000\000\000\000\000\000<\000\000\000\000\000\000\000A\000\000\000\000\000\000\000<\000\000\000\000\000\000\000<\000\000\000\000\000\000\000P\000\000\000\000\000\000\000D\000\000\000\000\000\000\000<\000\000\000\000\000\000\0000\000\000\000\000\000\000\000F\000\000\000\000\000\000\000U\000\000\000\000\000\000\000F\000\000\000\000\000\000\0002\000\000\000\000\000\000\0002\000\000\000\000\000\000\000U\000\000\000\000\000\000\000(\000\000\000\000\000\000\000X\000\000\000\000\000\000\000&\000\000\000\000\000\000\000<\000\000\000\000\000\000\000F\000\000\000\000\000\000\000F\000\000\000\000\000\000\0002\000\000\000\000\000\000\000M\000\000\000\000\000\000\000F\000\000\000\000\000\000\000M\000\000\000\000\000\000\0002\000\000\000\000\000\000\000A\000\000\000\000\000\000\000F\000\000\000\000\000\000\0002\000\000\000\000\000\000\000<\000\000\000\000\000\000\000F\000\000\000\000\000\000\000F\000\000\000\000\000\000\0002\000\000\000\000\000\000\0002\000\000\000\000\000\000\0007\000\000\000\000\000\000\000<\000\000\000\000\000\000\000J\000\000\000\000\000\000\0002\000\000\000\000\000\000\000<\000\000\000\000\000\000\000J\000\000\000\000\000\000\000A\000\000\000\000\000\000\000<\000\000\000\000\000\000\000<\000\000\000\000\000\000\000A\000\000\000\000\000\000\000=\000\000\000\000\000\000\0002\000\000\000\000\000\000\000F\000\000\000\000\000\000\000@\000\000\000\000\000\000\000P\000\000\000\000\000\000\000B\000\000\000\000\000\000\000<\000\000\000\000\000\000\0002\000\000\000\000\000\000\000<\000\000\000\000\000\000\000U\000\000\000\000\000\000\000J\000\000\000\000\000\000\000Z\000\000\000\000\000\000\000`\000\000\000\000\000\000\000F\000\000\000\000\000\000\0002\000\000\000\000\000\000\000F\000\000\000\000\000\000\0007\000\000\000\000\000\000\000F\000\000\000\000\000\000\0002\000\000\000\000\000\000\000@\000\000\000\000\000\000\0006\000\000\000\000\000\000\0002\000\000\000\000\000\000\000@\000\000\000\000\000\000\000P\000\000\000\000\000\000\0002\000\000\000\000\000\000\000H\000\000\000\000\000\000\000<\000\000\000\000\000\000\000M\000\000\000\000\000\000\000<\000\000\000\000\000\000\000\006\000\000\000\000\000\000\000F\000\000\000\000\000\000\000F\000\000\000\000\000\000\000P\000\000\000\000\000\000\000(\000\000\000\000\000\000\000E\000\000\000\000\000\000\000F\000\000\000\000\000\000\0009\000\000\000\000\000\000\000F\000\000\000\000\000\000\000F\000\000\000\000\000\000\000K\000\000\000\000\000\000\000<\000\000\000\000\000\000\000Z\000\000\000\000\000\000\0002\000\000\000\000\000\000\0009\000\000\000\000\000\000\000F\000\000\000\000\000\000\0009\000\000\000\000\000\000\000G\000\000\000\000\000\000\000P\000\000\000\000\000\000\000<\000\000\000\000\000\000\000F\000\000\000\000\000\000\000<\000\000\000\000\000\000\000<\000\000\000\000\000\000\000F\000\000\000\000\000\000\000F\000\000\000\000\000\000\000M\000\000\000\000\000\000\000F\000\000\000\000\000\000\0002\000\000\000\000\000\000\0002\000\000\000\000\000\000\000<\000\000\000\000\000\000\000<\000\000\000\000\000\000\000P\000\000\000\000\000\000\000(\000\000\000\000\000\000\000<\000\000\000\000\000\000\000F\000\000\000\000\000\000\000<\000\000\000\000\000\000\000<\000\000\000\000\000\000\0003\000\000\000\000\000\000\0004\000\000\000\000\000\000\000N\000\000\000\000\000\000\0002\000\000\000\000\000\000\000<\000\000\000\000\000\000\000<\000\000\000\000\000\000\0002\000\000\000\000\000\000\0009\000\000\000\000\000\000\000F\000\000\000\000\000\000\000B\000\000\000\000\000\000\0002\000\000\000\000\000\000\000P\000\000\000\000\000\000\000<\000\000\000\000\000\000\000F\000\000\000\000\000\000\0002\000\000\000\000\000\000\000P\000\000\000\000\000\000\0002\000\000\000\000\000\000\000<\000\000\000\000\000\000\0009\000\000\000\000\000\000\000Z\000\000\000\000\000\000\000<\000\000\000\000\000\000\000D\000\000\000\000\000\000\000d\000\000\000\000\000\000\000F\000\000\000\000\000\000\000P\000\000\000\000\000\000\000K\000\000\000\000\000\000\000<\000\000\000\000\000\000\000=\000\000\000\000\000\000\0002\000\000\000\000\000\000\000A\000\000\000\000\000\000\000P\000\000\000\000\000\000\000Z\000\000\000\000\000\000\000P\000\000\000\000\000\000\0002\000\000\000\000\000\000\000C\000\000\000\000\000\000\000I\000\000\000\000\000\000\000<\000\000\000\000\000\000\0002\000\000\000\000\000\000\000<\000\000\000\000\000\000\0002\000\000\000\000\000\000\000P\000\000\000\000\000\000\000<\000\000\000\000\000\000\000(\000\000\000\000\000\000\000<\000\000\000\000\000\000\000"
      }
    }
  }
}
node {
  name: "Const_8"
  op: "Const"
  device: "/device:CPU:0"
  attr {
    key: "_output_shapes"
    value {
      list {
        shape {
          dim {
            size: 173
          }
          dim {
            size: 1
          }
        }
      }
    }
  }
  attr {
    key: "dtype"
    value {
      type: DT_INT64
    }
  }
  attr {
    key: "value"
    value {
      tensor {
        dtype: DT_INT64
        tensor_shape {
          dim {
            size: 173
          }
          dim {
            size: 1
          }
        }
        tensor_content: "P\000\000\000\000\000\000\000F\000\000\000\000\000\000\000<\000\000\000\000\000\000\000D\000\000\000\000\000\000\000P\000\000\000\000\000\000\000P\000\000\000\000\000\000\000d\000\000\000\000\000\000\000d\000\000\000\000\000\000\000K\000\000\000\000\000\000\000A\000\000\000\000\000\000\000i\000\000\000\000\000\000\000`\000\000\000\000\000\000\000F\000\000\000\000\000\000\000Z\000\000\000\000\000\000\000U\000\000\000\000\000\000\000P\000\000\000\000\000\000\000Z\000\000\000\000\000\000\000Z\000\000\000\000\000\000\000K\000\000\000\000\000\000\000Z\000\000\000\000\000\000\000l\000\000\000\000\000\000\000s\000\000\000\000\000\000\000F\000\000\000\000\000\000\000P\000\000\000\000\000\000\000<\000\000\000\000\000\000\000U\000\000\000\000\000\000\000P\000\000\000\000\000\000\000P\000\000\000\000\000\000\000C\000\000\000\000\000\000\000U\000\000\000\000\000\000\000U\000\000\000\000\000\000\000K\000\000\000\000\000\000\000x\000\000\000\000\000\000\000_\000\000\000\000\000\000\000U\000\000\000\000\000\000\000U\000\000\000\000\000\000\000S\000\000\000\000\000\000\000s\000\000\000\000\000\000\000b\000\000\000\000\000\000\000P\000\000\000\000\000\000\000P\000\000\000\000\000\000\000`\000\000\000\000\000\000\000d\000\000\000\000\000\000\000d\000\000\000\000\000\000\000d\000\000\000\000\000\000\000s\000\000\000\000\000\000\000n\000\000\000\000\000\000\000P\000\000\000\000\000\000\000l\000\000\000\000\000\000\000a\000\000\000\000\000\000\000Z\000\000\000\000\000\000\000K\000\000\000\000\000\000\000P\000\000\000\000\000\000\000<\000\000\000\000\000\000\000P\000\000\000\000\000\000\000O\000\000\000\000\000\000\000F\000\000\000\000\000\000\000d\000\000\000\000\000\000\000R\000\000\000\000\000\000\000V\000\000\000\000\000\000\000-\000\000\000\000\000\000\000P\000\000\000\000\000\000\000<\000\000\000\000\000\000\000F\000\000\000\000\000\000\000K\000\000\000\000\000\000\000Z\000\000\000\000\000\000\000D\000\000\000\000\000\000\000P\000\000\000\000\000\000\000K\000\000\000\000\000\000\000n\000\000\000\000\000\000\000Z\000\000\000\000\000\000\000F\000\000\000\000\000\000\000i\000\000\000\000\000\000\000<\000\000\000\000\000\000\000n\000\000\000\000\000\000\000K\000\000\000\000\000\000\000P\000\000\000\000\000\000\000F\000\000\000\000\000\000\000U\000\000\000\000\000\000\000F\000\000\000\000\000\000\000V\000\000\000\000\000\000\000P\000\000\000\000\000\000\000P\000\000\000\000\000\000\000^\000\000\000\000\000\000\000Z\000\000\000\000\000\000\000U\000\000\000\000\000\000\000n\000\000\000\000\000\000\000x\000\000\000\000\000\000\000n\000\000\000\000\000\000\000X\000\000\000\000\000\000\000L\000\000\000\000\000\000\000Z\000\000\000\000\000\000\000S\000\000\000\000\000\000\000^\000\000\000\000\000\000\000n\000\000\000\000\000\000\000n\000\000\000\000\000\000\000P\000\000\000\000\000\000\000Z\000\000\000\000\000\000\000A\000\000\000\000\000\000\000Y\000\000\000\000\000\000\000Z\000\000\000\000\000\000\000S\000\000\000\000\000\000\000c\000\000\000\000\000\000\000\202\000\000\000\000\000\000\000Z\000\000\000\000\000\000\000j\000\000\000\000\000\000\0002\000\000\000\000\000\000\000U\000\000\000\000\000\000\000<\000\000\000\000\000\000\000D\000\000\000\000\000\000\000b\000\000\000\000\000\000\000F\000\000\000\000\000\000\000d\000\000\000\000\000\000\000F\000\000\000\000\000\000\000P\000\000\000\000\000\000\000U\000\000\000\000\000\000\000d\000\000\000\000\000\000\000K\000\000\000\000\000\000\000P\000\000\000\000\000\000\000x\000\000\000\000\000\000\000d\000\000\000\000\000\000\000c\000\000\000\000\000\000\000Z\000\000\000\000\000\000\000d\000\000\000\000\000\000\000<\000\000\000\000\000\000\000Z\000\000\000\000\000\000\000<\000\000\000\000\000\000\000F\000\000\000\000\000\000\000_\000\000\000\000\000\000\0002\000\000\000\000\000\000\000P\000\000\000\000\000\000\000K\000\000\000\000\000\000\000Z\000\000\000\000\000\000\000F\000\000\000\000\000\000\000Z\000\000\000\000\000\000\000d\000\000\000\000\000\000\000K\000\000\000\000\000\000\000D\000\000\000\000\000\000\000J\000\000\000\000\000\000\000P\000\000\000\000\000\000\000`\000\000\000\000\000\000\000d\000\000\000\000\000\000\000Z\000\000\000\000\000\000\000Z\000\000\000\000\000\000\000}\000\000\000\000\000\000\000T\000\000\000\000\000\000\000Z\000\000\000\000\000\000\000@\000\000\000\000\000\000\000H\000\000\000\000\000\000\000J\000\000\000\000\000\000\000\\\000\000\000\000\000\000\000Z\000\000\000\000\000\000\000Z\000\000\000\000\000\000\000Y\000\000\000\000\000\000\000F\000\000\000\000\000\000\000Q\000\000\000\000\000\000\000p\000\000\000\000\000\000\000n\000\000\000\000\000\000\000n\000\000\000\000\000\000\000l\000\000\000\000\000\000\000Z\000\000\000\000\000\000\000^\000\000\000\000\000\000\000d\000\000\000\000\000\000\000K\000\000\000\000\000\000\000N\000\000\000\000\000\000\000K\000\000\000\000\000\000\000H\000\000\000\000\000\000\000F\000\000\000\000\000\000\000F\000\000\000\000\000\000\000Z\000\000\000\000\000\000\000J\000\000\000\000\000\000\000V\000\000\000\000\000\000\000Z\000\000\000\000\000\000\000"
      }
    }
  }
}
node {
  name: "Const_9"
  op: "Const"
  device: "/device:CPU:0"
  attr {
    key: "_output_shapes"
    value {
      list {
        shape {
          dim {
            size: 173
          }
          dim {
            size: 1
          }
        }
      }
    }
  }
  attr {
    key: "dtype"
    value {
      type: DT_INT64
    }
  }
  attr {
    key: "value"
    value {
      tensor {
        dtype: DT_INT64
        tensor_shape {
          dim {
            size: 173
          }
          dim {
            size: 1
          }
        }
        tensor_content: "x\000\000\000\000\000\000\000x\000\000\000\000\000\000\000\310\000\000\000\000\000\000\000u\000\000\000\000\000\000\000\202\000\000\000\000\000\000\000n\000\000\000\000\000\000\000\261\000\000\000\000\000\000\000\206\000\000\000\000\000\000\000\226\000\000\000\000\000\000\000\227\000\000\000\000\000\000\000q\000\000\000\000\000\000\000\264\000\000\000\000\000\000\000n\000\000\000\000\000\000\000x\000\000\000\000\000\000\000\252\000\000\000\000\000\000\000\202\000\000\000\000\000\000\000\252\000\000\000\000\000\000\000\240\000\000\000\000\000\000\000\250\000\000\000\000\000\000\000\202\000\000\000\000\000\000\000e\000\000\000\000\000\000\000\244\000\000\000\000\000\000\000\226\000\000\000\000\000\000\000\226\000\000\000\000\000\000\000\214\000\000\000\000\000\000\000\214\000\000\000\000\000\000\000x\000\000\000\000\000\000\000\240\000\000\000\000\000\000\000\252\000\000\000\000\000\000\000\252\000\000\000\000\000\000\000\211\000\000\000\000\000\000\000x\000\000\000\000\000\000\000n\000\000\000\000\000\000\000\257\000\000\000\000\000\000\000n\000\000\000\000\000\000\000\240\000\000\000\000\000\000\000s\000\000\000\000\000\000\000\214\000\000\000\000\000\000\000\245\000\000\000\000\000\000\000\250\000\000\000\000\000\000\000\226\000\000\000\000\000\000\000\264\000\000\000\000\000\000\000\252\000\000\000\000\000\000\000\220\000\000\000\000\000\000\000\226\000\000\000\000\000\000\000\233\000\000\000\000\000\000\000\214\000\000\000\000\000\000\000x\000\000\000\000\000\000\000x\000\000\000\000\000\000\000\202\000\000\000\000\000\000\000\233\000\000\000\000\000\000\000d\000\000\000\000\000\000\000x\000\000\000\000\000\000\000\310\000\000\000\000\000\000\000\202\000\000\000\000\000\000\000\237\000\000\000\000\000\000\000\252\000\000\000\000\000\000\000\264\000\000\000\000\000\000\000\233\000\000\000\000\000\000\000\223\000\000\000\000\000\000\000\264\000\000\000\000\000\000\000x\000\000\000\000\000\000\000\252\000\000\000\000\000\000\000\233\000\000\000\000\000\000\000d\000\000\000\000\000\000\000x\000\000\000\000\000\000\000\202\000\000\000\000\000\000\000\252\000\000\000\000\000\000\000\200\000\000\000\000\000\000\000n\000\000\000\000\000\000\000\214\000\000\000\000\000\000\000\264\000\000\000\000\000\000\000\202\000\000\000\000\000\000\000\214\000\000\000\000\000\000\000\213\000\000\000\000\000\000\000\252\000\000\000\000\000\000\000\240\000\000\000\000\000\000\000\202\000\000\000\000\000\000\000\257\000\000\000\000\000\000\000\214\000\000\000\000\000\000\000n\000\000\000\000\000\000\000n\000\000\000\000\000\000\000\252\000\000\000\000\000\000\000d\000\000\000\000\000\000\000\202\000\000\000\000\000\000\000\252\000\000\000\000\000\000\000\226\000\000\000\000\000\000\000x\000\000\000\000\000\000\000\216\000\000\000\000\000\000\000\237\000\000\000\000\000\000\000\211\000\000\000\000\000\000\000n\000\000\000\000\000\000\000n\000\000\000\000\000\000\000\221\000\000\000\000\000\000\000\232\000\000\000\000\000\000\000\227\000\000\000\000\000\000\000x\000\000\000\000\000\000\000\264\000\000\000\000\000\000\000\226\000\000\000\000\000\000\000\202\000\000\000\000\000\000\000x\000\000\000\000\000\000\000\310\000\000\000\000\000\000\000n\000\000\000\000\000\000\000\214\000\000\000\000\000\000\000\264\000\000\000\000\000\000\000Z\000\000\000\000\000\000\000\214\000\000\000\000\000\000\000\312\000\000\000\000\000\000\000\240\000\000\000\000\000\000\000\214\000\000\000\000\000\000\000\240\000\000\000\000\000\000\000\226\000\000\000\000\000\000\000\224\000\000\000\000\000\000\000\240\000\000\000\000\000\000\000\226\000\000\000\000\000\000\000\225\000\000\000\000\000\000\000\202\000\000\000\000\000\000\000\257\000\000\000\000\000\000\000\276\000\000\000\000\000\000\000s\000\000\000\000\000\000\000\221\000\000\000\000\000\000\000\240\000\000\000\000\000\000\000x\000\000\000\000\000\000\000\252\000\000\000\000\000\000\000\211\000\000\000\000\000\000\000\226\000\000\000\000\000\000\000\214\000\000\000\000\000\000\000x\000\000\000\000\000\000\000\207\000\000\000\000\000\000\000\216\000\000\000\000\000\000\000|\000\000\000\000\000\000\000\276\000\000\000\000\000\000\000n\000\000\000\000\000\000\000\214\000\000\000\000\000\000\000{\000\000\000\000\000\000\000\214\000\000\000\000\000\000\000\232\000\000\000\000\000\000\000\264\000\000\000\000\000\000\000\202\000\000\000\000\000\000\000\226\000\000\000\000\000\000\000\210\000\000\000\000\000\000\000s\000\000\000\000\000\000\000\240\000\000\000\000\000\000\000x\000\000\000\000\000\000\000\257\000\000\000\000\000\000\000\270\000\000\000\000\000\000\000\310\000\000\000\000\000\000\000\232\000\000\000\000\000\000\000\300\000\000\000\000\000\000\000v\000\000\000\000\000\000\000l\000\000\000\000\000\000\000\252\000\000\000\000\000\000\000\202\000\000\000\000\000\000\000\226\000\000\000\000\000\000\000\221\000\000\000\000\000\000\000m\000\000\000\000\000\000\000\236\000\000\000\000\000\000\000x\000\000\000\000\000\000\000i\000\000\000\000\000\000\000\202\000\000\000\000\000\000\000\240\000\000\000\000\000\000\000\305\000\000\000\000\000\000\000}\000\000\000\000\000\000\000\224\000\000\000\000\000\000\000\223\000\000\000\000\000\000\000x\000\000\000\000\000\000\000\264\000\000\000\000\000\000\000n\000\000\000\000\000\000\000\214\000\000\000\000\000\000\000\240\000\000\000\000\000\000\000\214\000\000\000\000\000\000\000x\000\000\000\000\000\000\000n\000\000\000\000\000\000\000"
      }
    }
  }
}
node {
  name: "Const_10"
  op: "Const"
  device: "/device:CPU:0"
  attr {
    key: "_output_shapes"
    value {
      list {
        shape {
          dim {
            size: 173
          }
          dim {
            size: 1
          }
        }
      }
    }
  }
  attr {
    key: "dtype"
    value {
      type: DT_INT64
    }
  }
  attr {
    key: "value"
    value {
      tensor {
        dtype: DT_INT64
        tensor_shape {
          dim {
            size: 173
          }
          dim {
            size: 1
          }
        }
        tensor_content: "2\000\000\000\000\000\000\0002\000\000\000\000\000\000\000_\000\000\000\000\000\000\000(\000\000\000\000\000\000\0002\000\000\000\000\000\000\000<\000\000\000\000\000\000\000M\000\000\000\000\000\000\000B\000\000\000\000\000\000\000F\000\000\000\000\000\000\000@\000\000\000\000\000\000\000G\000\000\000\000\000\000\000Z\000\000\000\000\000\000\0002\000\000\000\000\000\000\000<\000\000\000\000\000\000\000P\000\000\000\000\000\000\000<\000\000\000\000\000\000\000F\000\000\000\000\000\000\000P\000\000\000\000\000\000\000J\000\000\000\000\000\000\000F\000\000\000\000\000\000\0005\000\000\000\000\000\000\000>\000\000\000\000\000\000\000P\000\000\000\000\000\000\000Z\000\000\000\000\000\000\000F\000\000\000\000\000\000\000D\000\000\000\000\000\000\000<\000\000\000\000\000\000\0002\000\000\000\000\000\000\000L\000\000\000\000\000\000\000Z\000\000\000\000\000\000\000F\000\000\000\000\000\000\0002\000\000\000\000\000\000\0002\000\000\000\000\000\000\000F\000\000\000\000\000\000\000<\000\000\000\000\000\000\000X\000\000\000\000\000\000\000)\000\000\000\000\000\000\000F\000\000\000\000\000\000\000R\000\000\000\000\000\000\000G\000\000\000\000\000\000\000F\000\000\000\000\000\000\000P\000\000\000\000\000\000\000P\000\000\000\000\000\000\000H\000\000\000\000\000\000\000P\000\000\000\000\000\000\000P\000\000\000\000\000\000\000P\000\000\000\000\000\000\0002\000\000\000\000\000\000\000<\000\000\000\000\000\000\000C\000\000\000\000\000\000\000A\000\000\000\000\000\000\000(\000\000\000\000\000\000\000<\000\000\000\000\000\000\000f\000\000\000\000\000\000\000<\000\000\000\000\000\000\000T\000\000\000\000\000\000\000F\000\000\000\000\000\000\000F\000\000\000\000\000\000\000P\000\000\000\000\000\000\000A\000\000\000\000\000\000\000<\000\000\000\000\000\000\000<\000\000\000\000\000\000\000:\000\000\000\000\000\000\000A\000\000\000\000\000\000\000F\000\000\000\000\000\000\000\036\000\000\000\000\000\000\000C\000\000\000\000\000\000\000P\000\000\000\000\000\000\000A\000\000\000\000\000\000\000<\000\000\000\000\000\000\000<\000\000\000\000\000\000\000C\000\000\000\000\000\000\000U\000\000\000\000\000\000\000M\000\000\000\000\000\000\000S\000\000\000\000\000\000\000\000\000\000\000\000\000\000\000F\000\000\000\000\000\000\000<\000\000\000\000\000\000\000A\000\000\000\000\000\000\0007\000\000\000\000\000\000\000<\000\000\000\000\000\000\0002\000\000\000\000\000\000\000U\000\000\000\000\000\000\0007\000\000\000\000\000\000\000<\000\000\000\000\000\000\000U\000\000\000\000\000\000\000P\000\000\000\000\000\000\0008\000\000\000\000\000\000\0008\000\000\000\000\000\000\000J\000\000\000\000\000\000\000K\000\000\000\000\000\000\0002\000\000\000\000\000\000\000<\000\000\000\000\000\000\000I\000\000\000\000\000\000\000Q\000\000\000\000\000\000\000K\000\000\000\000\000\000\000+\000\000\000\000\000\000\000F\000\000\000\000\000\000\000P\000\000\000\000\000\000\000<\000\000\000\000\000\000\000<\000\000\000\000\000\000\000Z\000\000\000\000\000\000\000F\000\000\000\000\000\000\000<\000\000\000\000\000\000\000P\000\000\000\000\000\000\0002\000\000\000\000\000\000\000<\000\000\000\000\000\000\000\\\000\000\000\000\000\000\000?\000\000\000\000\000\000\000K\000\000\000\000\000\000\000Z\000\000\000\000\000\000\000F\000\000\000\000\000\000\000B\000\000\000\000\000\000\000P\000\000\000\000\000\000\000F\000\000\000\000\000\000\000I\000\000\000\000\000\000\000F\000\000\000\000\000\000\000P\000\000\000\000\000\000\000U\000\000\000\000\000\000\000A\000\000\000\000\000\000\000(\000\000\000\000\000\000\0002\000\000\000\000\000\000\000<\000\000\000\000\000\000\000Z\000\000\000\000\000\000\0007\000\000\000\000\000\000\000F\000\000\000\000\000\000\000A\000\000\000\000\000\000\000<\000\000\000\000\000\000\000<\000\000\000\000\000\000\0004\000\000\000\000\000\000\000@\000\000\000\000\000\000\000S\000\000\000\000\000\000\0002\000\000\000\000\000\000\000F\000\000\000\000\000\000\000<\000\000\000\000\000\000\000<\000\000\000\000\000\000\0002\000\000\000\000\000\000\000F\000\000\000\000\000\000\000A\000\000\000\000\000\000\000<\000\000\000\000\000\000\000O\000\000\000\000\000\000\000Z\000\000\000\000\000\000\000P\000\000\000\000\000\000\000<\000\000\000\000\000\000\000P\000\000\000\000\000\000\000T\000\000\000\000\000\000\000n\000\000\000\000\000\000\0009\000\000\000\000\000\000\000d\000\000\000\000\000\000\000G\000\000\000\000\000\000\000<\000\000\000\000\000\000\000U\000\000\000\000\000\000\000F\000\000\000\000\000\000\000Z\000\000\000\000\000\000\000K\000\000\000\000\000\000\000A\000\000\000\000\000\000\000E\000\000\000\000\000\000\0007\000\000\000\000\000\000\000-\000\000\000\000\000\000\000F\000\000\000\000\000\000\000<\000\000\000\000\000\000\000P\000\000\000\000\000\000\0005\000\000\000\000\000\000\000Q\000\000\000\000\000\000\000F\000\000\000\000\000\000\000F\000\000\000\000\000\000\000A\000\000\000\000\000\000\0002\000\000\000\000\000\000\000<\000\000\000\000\000\000\000Z\000\000\000\000\000\000\000<\000\000\000\000\000\000\0002\000\000\000\000\000\000\000(\000\000\000\000\000\000\000"
      }
    }
  }
}
node {
  name: "Const_11"
  op: "Const"
  device: "/device:CPU:0"
  attr {
    key: "_output_shapes"
    value {
      list {
        shape {
          dim {
            size: 173
          }
          dim {
            size: 1
          }
        }
      }
    }
  }
  attr {
    key: "dtype"
    value {
      type: DT_INT64
    }
  }
  attr {
    key: "value"
    value {
      tensor {
        dtype: DT_INT64
        tensor_shape {
          dim {
            size: 173
          }
          dim {
            size: 1
          }
        }
        tensor_content: "P\000\000\000\000\000\000\000F\000\000\000\000\000\000\000i\000\000\000\000\000\000\0002\000\000\000\000\000\000\000P\000\000\000\000\000\000\000P\000\000\000\000\000\000\000d\000\000\000\000\000\000\000}\000\000\000\000\000\000\000F\000\000\000\000\000\000\000H\000\000\000\000\000\000\000d\000\000\000\000\000\000\000d\000\000\000\000\000\000\000F\000\000\000\000\000\000\000P\000\000\000\000\000\000\000n\000\000\000\000\000\000\000d\000\000\000\000\000\000\000Z\000\000\000\000\000\000\000Z\000\000\000\000\000\000\000@\000\000\000\000\000\000\000P\000\000\000\000\000\000\000f\000\000\000\000\000\000\000o\000\000\000\000\000\000\000Z\000\000\000\000\000\000\000Z\000\000\000\000\000\000\000F\000\000\000\000\000\000\000V\000\000\000\000\000\000\000P\000\000\000\000\000\000\000F\000\000\000\000\000\000\000Z\000\000\000\000\000\000\000d\000\000\000\000\000\000\000U\000\000\000\000\000\000\000N\000\000\000\000\000\000\000n\000\000\000\000\000\000\000s\000\000\000\000\000\000\000U\000\000\000\000\000\000\000W\000\000\000\000\000\000\000Z\000\000\000\000\000\000\000n\000\000\000\000\000\000\000e\000\000\000\000\000\000\000P\000\000\000\000\000\000\000Z\000\000\000\000\000\000\000Z\000\000\000\000\000\000\000_\000\000\000\000\000\000\000U\000\000\000\000\000\000\000n\000\000\000\000\000\000\000n\000\000\000\000\000\000\000Z\000\000\000\000\000\000\000d\000\000\000\000\000\000\000\214\000\000\000\000\000\000\000v\000\000\000\000\000\000\000i\000\000\000\000\000\000\000F\000\000\000\000\000\000\000U\000\000\000\000\000\000\000j\000\000\000\000\000\000\000O\000\000\000\000\000\000\000h\000\000\000\000\000\000\000F\000\000\000\000\000\000\000d\000\000\000\000\000\000\000`\000\000\000\000\000\000\000\\\000\000\000\000\000\000\000-\000\000\000\000\000\000\000P\000\000\000\000\000\000\000@\000\000\000\000\000\000\000F\000\000\000\000\000\000\000P\000\000\000\000\000\000\000d\000\000\000\000\000\000\000P\000\000\000\000\000\000\000F\000\000\000\000\000\000\000M\000\000\000\000\000\000\000Z\000\000\000\000\000\000\000Z\000\000\000\000\000\000\000Z\000\000\000\000\000\000\000d\000\000\000\000\000\000\000^\000\000\000\000\000\000\000u\000\000\000\000\000\000\000V\000\000\000\000\000\000\000P\000\000\000\000\000\000\000F\000\000\000\000\000\000\000X\000\000\000\000\000\000\000F\000\000\000\000\000\000\000d\000\000\000\000\000\000\000P\000\000\000\000\000\000\000m\000\000\000\000\000\000\000^\000\000\000\000\000\000\000d\000\000\000\000\000\000\000d\000\000\000\000\000\000\000n\000\000\000\000\000\000\000w\000\000\000\000\000\000\000N\000\000\000\000\000\000\000d\000\000\000\000\000\000\000N\000\000\000\000\000\000\000_\000\000\000\000\000\000\000g\000\000\000\000\000\000\000d\000\000\000\000\000\000\000p\000\000\000\000\000\000\000q\000\000\000\000\000\000\000Z\000\000\000\000\000\000\000b\000\000\000\000\000\000\000?\000\000\000\000\000\000\000Z\000\000\000\000\000\000\000Y\000\000\000\000\000\000\000V\000\000\000\000\000\000\000V\000\000\000\000\000\000\000V\000\000\000\000\000\000\000Z\000\000\000\000\000\000\000^\000\000\000\000\000\000\0002\000\000\000\000\000\000\000n\000\000\000\000\000\000\000F\000\000\000\000\000\000\000K\000\000\000\000\000\000\000d\000\000\000\000\000\000\000F\000\000\000\000\000\000\000m\000\000\000\000\000\000\000<\000\000\000\000\000\000\000<\000\000\000\000\000\000\000Z\000\000\000\000\000\000\000Z\000\000\000\000\000\000\000L\000\000\000\000\000\000\000P\000\000\000\000\000\000\000\010\000\000\000\000\000\000\000Z\000\000\000\000\000\000\000p\000\000\000\000\000\000\000P\000\000\000\000\000\000\000d\000\000\000\000\000\000\000<\000\000\000\000\000\000\000_\000\000\000\000\000\000\000I\000\000\000\000\000\000\000B\000\000\000\000\000\000\000d\000\000\000\000\000\000\0002\000\000\000\000\000\000\000T\000\000\000\000\000\000\000n\000\000\000\000\000\000\000Z\000\000\000\000\000\000\000P\000\000\000\000\000\000\000W\000\000\000\000\000\000\000a\000\000\000\000\000\000\000V\000\000\000\000\000\000\000G\000\000\000\000\000\000\000b\000\000\000\000\000\000\000Z\000\000\000\000\000\000\000e\000\000\000\000\000\000\000u\000\000\000\000\000\000\000_\000\000\000\000\000\000\000F\000\000\000\000\000\000\000~\000\000\000\000\000\000\000Z\000\000\000\000\000\000\000n\000\000\000\000\000\000\000?\000\000\000\000\000\000\000L\000\000\000\000\000\000\000H\000\000\000\000\000\000\000^\000\000\000\000\000\000\000k\000\000\000\000\000\000\000_\000\000\000\000\000\000\000d\000\000\000\000\000\000\000\014\000\000\000\000\000\000\000M\000\000\000\000\000\000\000y\000\000\000\000\000\000\000k\000\000\000\000\000\000\000i\000\000\000\000\000\000\000j\000\000\000\000\000\000\000F\000\000\000\000\000\000\000m\000\000\000\000\000\000\000d\000\000\000\000\000\000\000^\000\000\000\000\000\000\000U\000\000\000\000\000\000\000<\000\000\000\000\000\000\000L\000\000\000\000\000\000\000U\000\000\000\000\000\000\000Z\000\000\000\000\000\000\000Z\000\000\000\000\000\000\000K\000\000\000\000\000\000\000d\000\000\000\000\000\000\000Z\000\000\000\000\000\000\000"
      }
    }
  }
}
node {
  name: "Const_12"
  op: "Const"
  device: "/device:CPU:0"
  attr {
    key: "_output_shapes"
    value {
      list {
        shape {
          dim {
            size: 173
          }
          dim {
            size: 1
          }
        }
      }
    }
  }
  attr {
    key: "dtype"
    value {
      type: DT_INT64
    }
  }
  attr {
    key: "value"
    value {
      tensor {
        dtype: DT_INT64
        tensor_shape {
          dim {
            size: 173
          }
          dim {
            size: 1
          }
        }
        tensor_content: "\017\000\000\000\000\000\000\000\010\000\000\000\000\000\000\000\023\000\000\000\000\000\000\000\022\000\000\000\000\000\000\000\022\000\000\000\000\000\000\000\016\000\000\000\000\000\000\000\014\000\000\000\000\000\000\000\032\000\000\000\000\000\000\000\016\000\000\000\000\000\000\000\014\000\000\000\000\000\000\000\016\000\000\000\000\000\000\000\020\000\000\000\000\000\000\000\022\000\000\000\000\000\000\000\024\000\000\000\000\000\000\000\024\000\000\000\000\000\000\000\006\000\000\000\000\000\000\000\020\000\000\000\000\000\000\000\n\000\000\000\000\000\000\000\022\000\000\000\000\000\000\000\n\000\000\000\000\000\000\000\032\000\000\000\000\000\000\000\024\000\000\000\000\000\000\000\017\000\000\000\000\000\000\000\010\000\000\000\000\000\000\000\n\000\000\000\000\000\000\000\036\000\000\000\000\000\000\000\022\000\000\000\000\000\000\000\014\000\000\000\000\000\000\000\021\000\000\000\000\000\000\000\014\000\000\000\000\000\000\000\020\000\000\000\000\000\000\000\017\000\000\000\000\000\000\000\016\000\000\000\000\000\000\000\023\000\000\000\000\000\000\000\034\000\000\000\000\000\000\000\014\000\000\000\000\000\000\000\r\000\000\000\000\000\000\000\031\000\000\000\000\000\000\000\031\000\000\000\000\000\000\000\017\000\000\000\000\000\000\000\033\000\000\000\000\000\000\000\020\000\000\000\000\000\000\000\014\000\000\000\000\000\000\000\036\000\000\000\000\000\000\000\030\000\000\000\000\000\000\000\017\000\000\000\000\000\000\000\016\000\000\000\000\000\000\000\003\000\000\000\000\000\000\000\022\000\000\000\000\000\000\000\024\000\000\000\000\000\000\000\016\000\000\000\000\000\000\000\017\000\000\000\000\000\000\000\024\000\000\000\000\000\000\000\017\000\000\000\000\000\000\000\032\000\000\000\000\000\000\000\016\000\000\000\000\000\000\000\n\000\000\000\000\000\000\000\033\000\000\000\000\000\000\000\036\000\000\000\000\000\000\000\014\000\000\000\000\000\000\000\034\000\000\000\000\000\000\000\024\000\000\000\000\000\000\000\021\000\000\000\000\000\000\000\014\000\000\000\000\000\000\000\020\000\000\000\000\000\000\000\020\000\000\000\000\000\000\000\022\000\000\000\000\000\000\000\014\000\000\000\000\000\000\000\016\000\000\000\000\000\000\000\014\000\000\000\000\000\000\000\032\000\000\000\000\000\000\000\024\000\000\000\000\000\000\000\021\000\000\000\000\000\000\000\030\000\000\000\000\000\000\000\014\000\000\000\000\000\000\000\022\000\000\000\000\000\000\000\010\000\000\000\000\000\000\000\020\000\000\000\000\000\000\000\014\000\000\000\000\000\000\000\024\000\000\000\000\000\000\000\024\000\000\000\000\000\000\000\024\000\000\000\000\000\000\000\016\000\000\000\000\000\000\000\020\000\000\000\000\000\000\000\n\000\000\000\000\000\000\000\017\000\000\000\000\000\000\000\020\000\000\000\000\000\000\000\016\000\000\000\000\000\000\000\017\000\000\000\000\000\000\000\031\000\000\000\000\000\000\000\016\000\000\000\000\000\000\000\024\000\000\000\000\000\000\000\017\000\000\000\000\000\000\000\025\000\000\000\000\000\000\000\027\000\000\000\000\000\000\000\016\000\000\000\000\000\000\000\014\000\000\000\000\000\000\000\017\000\000\000\000\000\000\000\010\000\000\000\000\000\000\000\024\000\000\000\000\000\000\000\020\000\000\000\000\000\000\000\024\000\000\000\000\000\000\000\024\000\000\000\000\000\000\000\016\000\000\000\000\000\000\000\020\000\000\000\000\000\000\000\017\000\000\000\000\000\000\000\017\000\000\000\000\000\000\000\024\000\000\000\000\000\000\000\017\000\000\000\000\000\000\000\021\000\000\000\000\000\000\000\017\000\000\000\000\000\000\000\010\000\000\000\000\000\000\000\025\000\000\000\000\000\000\000\020\000\000\000\000\000\000\000\024\000\000\000\000\000\000\000\036\000\000\000\000\000\000\000\010\000\000\000\000\000\000\000\032\000\000\000\000\000\000\000\016\000\000\000\000\000\000\000\017\000\000\000\000\000\000\000\n\000\000\000\000\000\000\000\010\000\000\000\000\000\000\000\006\000\000\000\000\000\000\000\022\000\000\000\000\000\000\000\014\000\000\000\000\000\000\000\r\000\000\000\000\000\000\000\014\000\000\000\000\000\000\000\024\000\000\000\000\000\000\000\022\000\000\000\000\000\000\000\026\000\000\000\000\000\000\000\014\000\000\000\000\000\000\000\021\000\000\000\000\000\000\000\n\000\000\000\000\000\000\000\014\000\000\000\000\000\000\000\024\000\000\000\000\000\000\000\n\000\000\000\000\000\000\000\024\000\000\000\000\000\000\000\016\000\000\000\000\000\000\000\027\000\000\000\000\000\000\000\n\000\000\000\000\000\000\000\022\000\000\000\000\000\000\000\020\000\000\000\000\000\000\000\016\000\000\000\000\000\000\000\n\000\000\000\000\000\000\000\030\000\000\000\000\000\000\000\014\000\000\000\000\000\000\000\024\000\000\000\000\000\000\000\026\000\000\000\000\000\000\000\024\000\000\000\000\000\000\000\016\000\000\000\000\000\000\000\010\000\000\000\000\000\000\000\014\000\000\000\000\000\000\000\014\000\000\000\000\000\000\000\031\000\000\000\000\000\000\000\024\000\000\000\000\000\000\000\006\000\000\000\000\000\000\000\024\000\000\000\000\000\000\000\034\000\000\000\000\000\000\000\026\000\000\000\000\000\000\000\030\000\000\000\000\000\000\000\021\000\000\000\000\000\000\000\014\000\000\000\000\000\000\000\027\000\000\000\000\000\000\000\r\000\000\000\000\000\000\000\017\000\000\000\000\000\000\000\010\000\000\000\000\000\000\000\024\000\000\000\000\000\000\000\026\000\000\000\000\000\000\000\016\000\000\000\000\000\000\000\026\000\000\000\000\000\000\000\010\000\000\000\000\000\000\000\036\000\000\000\000\000\000\000\030\000\000\000\000\000\000\000"
      }
    }
  }
}
node {
  name: "Const_13"
  op: "Const"
  device: "/device:CPU:0"
  attr {
    key: "_output_shapes"
    value {
      list {
        shape {
          dim {
            size: 173
          }
          dim {
            size: 1
          }
        }
      }
    }
  }
  attr {
    key: "dtype"
    value {
      type: DT_DOUBLE
    }
  }
  attr {
    key: "value"
    value {
      tensor {
        dtype: DT_DOUBLE
        tensor_shape {
          dim {
            size: 173
          }
          dim {
            size: 1
          }
        }
        tensor_content: "\232\231\231\231\231\231\331?\232\231\231\231\231\231\331?\232\231\231\231\231\231\331?\232\231\231\231\231\231\331?\232\231\231\231\231\231\331?\232\231\231\231\231\231\331?\232\231\231\231\231\231\331?333333\323?333333\323?\232\231\231\231\231\231\331?\232\231\231\231\231\231\331?333333\323?\232\231\231\231\231\231\331?333333\323?333333\323?\232\231\231\231\231\231\331?\232\231\231\231\231\231\311?333333\323?\232\231\231\231\231\231\331?333333\323?333333\323?\232\231\231\231\231\231\331?333333\323?333333\323?333333\323?\232\231\231\231\231\231\331?\232\231\231\231\231\231\331?333333\323?333333\323?\232\231\231\231\231\231\311?333333\323?\232\231\231\231\231\231\331?\232\231\231\231\231\231\331?\232\231\231\231\231\231\331?\232\231\231\231\231\231\311?\232\231\231\231\231\231\331?\232\231\231\231\231\231\331?\232\231\231\231\231\231\331?333333\323?\232\231\231\231\231\231\331?\232\231\231\231\231\231\331?\232\231\231\231\231\231\331?333333\323?\232\231\231\231\231\231\331?\232\231\231\231\231\231\331?\232\231\231\231\231\231\331?333333\323?\232\231\231\231\231\231\331?333333\323?\232\231\231\231\231\231\331?\232\231\231\231\231\231\331?333333\323?333333\323?\232\231\231\231\231\231\331?333333\323?\232\231\231\231\231\231\331?\232\231\231\231\231\231\331?333333\323?\232\231\231\231\231\231\331?\232\231\231\231\231\231\331?333333\323?\232\231\231\231\231\231\331?\232\231\231\231\231\231\331?\232\231\231\231\231\231\331?333333\323?\000\000\000\000\000\000\340?\232\231\231\231\231\231\331?\232\231\231\231\231\231\331?\232\231\231\231\231\231\331?\232\231\231\231\231\231\311?333333\323?\232\231\231\231\231\231\331?\232\231\231\231\231\231\331?\232\231\231\231\231\231\331?\232\231\231\231\231\231\331?\232\231\231\231\231\231\331?\232\231\231\231\231\231\331?333333\323?\232\231\231\231\231\231\331?\232\231\231\231\231\231\331?\232\231\231\231\231\231\331?\232\231\231\231\231\231\331?\232\231\231\231\231\231\331?\232\231\231\231\231\231\331?\232\231\231\231\231\231\331?\232\231\231\231\231\231\331?\232\231\231\231\231\231\331?\232\231\231\231\231\231\331?\232\231\231\231\231\231\331?333333\323?\232\231\231\231\231\231\331?333333\323?\232\231\231\231\231\231\331?\232\231\231\231\231\231\331?333333\323?\232\231\231\231\231\231\331?\232\231\231\231\231\231\331?333333\323?333333\323?\232\231\231\231\231\231\331?333333\323?\232\231\231\231\231\231\331?\232\231\231\231\231\231\331?\232\231\231\231\231\231\331?\232\231\231\231\231\231\331?333333\323?\232\231\231\231\231\231\331?\232\231\231\231\231\231\331?\232\231\231\231\231\231\331?\232\231\231\231\231\231\331?333333\323?333333\323?333333\323?\232\231\231\231\231\231\331?\232\231\231\231\231\231\331?333333\323?\232\231\231\231\231\231\331?\232\231\231\231\231\231\331?\232\231\231\231\231\231\331?\232\231\231\231\231\231\331?\232\231\231\231\231\231\331?333333\323?333333\323?\232\231\231\231\231\231\331?\232\231\231\231\231\231\331?333333\323?\232\231\231\231\231\231\331?\232\231\231\231\231\231\331?\232\231\231\231\231\231\331?\232\231\231\231\231\231\331?\232\231\231\231\231\231\331?\232\231\231\231\231\231\331?333333\323?\232\231\231\231\231\231\331?\232\231\231\231\231\231\331?\000\000\000\000\000\000\340?\232\231\231\231\231\231\331?\232\231\231\231\231\231\331?\232\231\231\231\231\231\331?333333\323?333333\323?\232\231\231\231\231\231\331?\232\231\231\231\231\231\331?333333\323?\232\231\231\231\231\231\331?\232\231\231\231\231\231\331?\232\231\231\231\231\231\331?\232\231\231\231\231\231\331?333333\323?333333\323?\232\231\231\231\231\231\331?\232\231\231\231\231\231\331?333333\323?333333\323?\232\231\231\231\231\231\331?\232\231\231\231\231\231\331?\232\231\231\231\231\231\331?\232\231\231\231\231\231\331?\232\231\231\231\231\231\331?\232\231\231\231\231\231\331?333333\323?\232\231\231\231\231\231\331?\000\000\000\000\000\000\340?\232\231\231\231\231\231\331?\232\231\231\231\231\231\331?333333\323?\232\231\231\231\231\231\331?\232\231\231\231\231\231\331?\232\231\231\231\231\231\331?\000\000\000\000\000\000\340?333333\323?\232\231\231\231\231\231\331?333333\323?"
      }
    }
  }
}
node {
  name: "Const_14"
  op: "Const"
  device: "/device:CPU:0"
  attr {
    key: "_output_shapes"
    value {
      list {
        shape {
          dim {
            size: 173
          }
          dim {
            size: 1
          }
        }
      }
    }
  }
  attr {
    key: "dtype"
    value {
      type: DT_INT64
    }
  }
  attr {
    key: "value"
    value {
      tensor {
        dtype: DT_INT64
        tensor_shape {
          dim {
            size: 173
          }
          dim {
            size: 1
          }
        }
        tensor_content: "\004\000\000\000\000\000\000\000\002\000\000\000\000\000\000\000\004\000\000\000\000\000\000\000\000\000\000\000\000\000\000\000\003\000\000\000\000\000\000\000\004\000\000\000\000\000\000\000\000\000\000\000\000\000\000\000\004\000\000\000\000\000\000\000\005\000\000\000\000\000\000\000\004\000\000\000\000\000\000\000\000\000\000\000\000\000\000\000\001\000\000\000\000\000\000\000\002\000\000\000\000\000\000\000\002\000\000\000\000\000\000\000\001\000\000\000\000\000\000\000\005\000\000\000\000\000\000\000\002\000\000\000\000\000\000\000\003\000\000\000\000\000\000\000\004\000\000\000\000\000\000\000\001\000\000\000\000\000\000\000\004\000\000\000\000\000\000\000\000\000\000\000\000\000\000\000\003\000\000\000\000\000\000\000\003\000\000\000\000\000\000\000\002\000\000\000\000\000\000\000\004\000\000\000\000\000\000\000\002\000\000\000\000\000\000\000\001\000\000\000\000\000\000\000\003\000\000\000\000\000\000\000\001\000\000\000\000\000\000\000\001\000\000\000\000\000\000\000\000\000\000\000\000\000\000\000\002\000\000\000\000\000\000\000\000\000\000\000\000\000\000\000\001\000\000\000\000\000\000\000\000\000\000\000\000\000\000\000\004\000\000\000\000\000\000\000\003\000\000\000\000\000\000\000\001\000\000\000\000\000\000\000\004\000\000\000\000\000\000\000\003\000\000\000\000\000\000\000\000\000\000\000\000\000\000\000\005\000\000\000\000\000\000\000\000\000\000\000\000\000\000\000\002\000\000\000\000\000\000\000\004\000\000\000\000\000\000\000\002\000\000\000\000\000\000\000\006\000\000\000\000\000\000\000\002\000\000\000\000\000\000\000\004\000\000\000\000\000\000\000\004\000\000\000\000\000\000\000\004\000\000\000\000\000\000\000\004\000\000\000\000\000\000\000\000\000\000\000\000\000\000\000\003\000\000\000\000\000\000\000\004\000\000\000\000\000\000\000\003\000\000\000\000\000\000\000\003\000\000\000\000\000\000\000\004\000\000\000\000\000\000\000\000\000\000\000\000\000\000\000\003\000\000\000\000\000\000\000\002\000\000\000\000\000\000\000\000\000\000\000\000\000\000\000\004\000\000\000\000\000\000\000\002\000\000\000\000\000\000\000\001\000\000\000\000\000\000\000\000\000\000\000\000\000\000\000\000\000\000\000\000\000\000\000\000\000\000\000\000\000\000\000\002\000\000\000\000\000\000\000\003\000\000\000\000\000\000\000\000\000\000\000\000\000\000\000\004\000\000\000\000\000\000\000\004\000\000\000\000\000\000\000\000\000\000\000\000\000\000\000\004\000\000\000\000\000\000\000\004\000\000\000\000\000\000\000\003\000\000\000\000\000\000\000\004\000\000\000\000\000\000\000\000\000\000\000\000\000\000\000\004\000\000\000\000\000\000\000\005\000\000\000\000\000\000\000\000\000\000\000\000\000\000\000\004\000\000\000\000\000\000\000\002\000\000\000\000\000\000\000\004\000\000\000\000\000\000\000\002\000\000\000\000\000\000\000\004\000\000\000\000\000\000\000\000\000\000\000\000\000\000\000\001\000\000\000\000\000\000\000\004\000\000\000\000\000\000\000\001\000\000\000\000\000\000\000\004\000\000\000\000\000\000\000\004\000\000\000\000\000\000\000\003\000\000\000\000\000\000\000\003\000\000\000\000\000\000\000\004\000\000\000\000\000\000\000\003\000\000\000\000\000\000\000\002\000\000\000\000\000\000\000\004\000\000\000\000\000\000\000\001\000\000\000\000\000\000\000\000\000\000\000\000\000\000\000\000\000\000\000\000\000\000\000\003\000\000\000\000\000\000\000\005\000\000\000\000\000\000\000\004\000\000\000\000\000\000\000\004\000\000\000\000\000\000\000\000\000\000\000\000\000\000\000\004\000\000\000\000\000\000\000\000\000\000\000\000\000\000\000\005\000\000\000\000\000\000\000\004\000\000\000\000\000\000\000\003\000\000\000\000\000\000\000\004\000\000\000\000\000\000\000\002\000\000\000\000\000\000\000\004\000\000\000\000\000\000\000\002\000\000\000\000\000\000\000\000\000\000\000\000\000\000\000\000\000\000\000\000\000\000\000\004\000\000\000\000\000\000\000\005\000\000\000\000\000\000\000\001\000\000\000\000\000\000\000\003\000\000\000\000\000\000\000\004\000\000\000\000\000\000\000\004\000\000\000\000\000\000\000\002\000\000\000\000\000\000\000\004\000\000\000\000\000\000\000\002\000\000\000\000\000\000\000\004\000\000\000\000\000\000\000\004\000\000\000\000\000\000\000\004\000\000\000\000\000\000\000\000\000\000\000\000\000\000\000\003\000\000\000\000\000\000\000\002\000\000\000\000\000\000\000\004\000\000\000\000\000\000\000\002\000\000\000\000\000\000\000\004\000\000\000\000\000\000\000\000\000\000\000\000\000\000\000\004\000\000\000\000\000\000\000\003\000\000\000\000\000\000\000\003\000\000\000\000\000\000\000\002\000\000\000\000\000\000\000\003\000\000\000\000\000\000\000\002\000\000\000\000\000\000\000\004\000\000\000\000\000\000\000\000\000\000\000\000\000\000\000\004\000\000\000\000\000\000\000\004\000\000\000\000\000\000\000\004\000\000\000\000\000\000\000\001\000\000\000\000\000\000\000\004\000\000\000\000\000\000\000\000\000\000\000\000\000\000\000\005\000\000\000\000\000\000\000\001\000\000\000\000\000\000\000\000\000\000\000\000\000\000\000\004\000\000\000\000\000\000\000\000\000\000\000\000\000\000\000\004\000\000\000\000\000\000\000\002\000\000\000\000\000\000\000\000\000\000\000\000\000\000\000\003\000\000\000\000\000\000\000\000\000\000\000\000\000\000\000\003\000\000\000\000\000\000\000\004\000\000\000\000\000\000\000\004\000\000\000\000\000\000\000\002\000\000\000\000\000\000\000\004\000\000\000\000\000\000\000\003\000\000\000\000\000\000\000\002\000\000\000\000\000\000\000\004\000\000\000\000\000\000\000\003\000\000\000\000\000\000\000\004\000\000\000\000\000\000\000\003\000\000\000\000\000\000\000"
      }
    }
  }
}
node {
  name: "Const_15"
  op: "Const"
  device: "/device:CPU:0"
  attr {
    key: "_output_shapes"
    value {
      list {
        shape {
          dim {
            size: 173
          }
          dim {
            size: 1
          }
        }
      }
    }
  }
  attr {
    key: "dtype"
    value {
      type: DT_INT64
    }
  }
  attr {
    key: "value"
    value {
      tensor {
        dtype: DT_INT64
        tensor_shape {
          dim {
            size: 173
          }
          dim {
            size: 1
          }
        }
        tensor_content: "\005\000\000\000\000\000\000\000\010\000\000\000\000\000\000\000\005\000\000\000\000\000\000\000\005\000\000\000\000\000\000\000\n\000\000\000\000\000\000\000\005\000\000\000\000\000\000\000\005\000\000\000\000\000\000\000\006\000\000\000\000\000\000\000\004\000\000\000\000\000\000\000\005\000\000\000\000\000\000\000\005\000\000\000\000\000\000\000\005\000\000\000\000\000\000\000\010\000\000\000\000\000\000\000\005\000\000\000\000\000\000\000\005\000\000\000\000\000\000\000\006\000\000\000\000\000\000\000\004\000\000\000\000\000\000\000\007\000\000\000\000\000\000\000\005\000\000\000\000\000\000\000\006\000\000\000\000\000\000\000\006\000\000\000\000\000\000\000\005\000\000\000\000\000\000\000\005\000\000\000\000\000\000\000\006\000\000\000\000\000\000\000\006\000\000\000\000\000\000\000\005\000\000\000\000\000\000\000\006\000\000\000\000\000\000\000\005\000\000\000\000\000\000\000\010\000\000\000\000\000\000\000\004\000\000\000\000\000\000\000\005\000\000\000\000\000\000\000\005\000\000\000\000\000\000\000\006\000\000\000\000\000\000\000\010\000\000\000\000\000\000\000\005\000\000\000\000\000\000\000\005\000\000\000\000\000\000\000\005\000\000\000\000\000\000\000\006\000\000\000\000\000\000\000\005\000\000\000\000\000\000\000\005\000\000\000\000\000\000\000\006\000\000\000\000\000\000\000\005\000\000\000\000\000\000\000\005\000\000\000\000\000\000\000\005\000\000\000\000\000\000\000\005\000\000\000\000\000\000\000\005\000\000\000\000\000\000\000\010\000\000\000\000\000\000\000\005\000\000\000\000\000\000\000\010\000\000\000\000\000\000\000\005\000\000\000\000\000\000\000\005\000\000\000\000\000\000\000\005\000\000\000\000\000\000\000\004\000\000\000\000\000\000\000\005\000\000\000\000\000\000\000\005\000\000\000\000\000\000\000\005\000\000\000\000\000\000\000\005\000\000\000\000\000\000\000\004\000\000\000\000\000\000\000\005\000\000\000\000\000\000\000\005\000\000\000\000\000\000\000\010\000\000\000\000\000\000\000\006\000\000\000\000\000\000\000\005\000\000\000\000\000\000\000\005\000\000\000\000\000\000\000\006\000\000\000\000\000\000\000\005\000\000\000\000\000\000\000\005\000\000\000\000\000\000\000\005\000\000\000\000\000\000\000\005\000\000\000\000\000\000\000\005\000\000\000\000\000\000\000\005\000\000\000\000\000\000\000\005\000\000\000\000\000\000\000\005\000\000\000\000\000\000\000\005\000\000\000\000\000\000\000\005\000\000\000\000\000\000\000\005\000\000\000\000\000\000\000\003\000\000\000\000\000\000\000\005\000\000\000\000\000\000\000\005\000\000\000\000\000\000\000\005\000\000\000\000\000\000\000\005\000\000\000\000\000\000\000\005\000\000\000\000\000\000\000\005\000\000\000\000\000\000\000\005\000\000\000\000\000\000\000\005\000\000\000\000\000\000\000\005\000\000\000\000\000\000\000\010\000\000\000\000\000\000\000\010\000\000\000\000\000\000\000\005\000\000\000\000\000\000\000\005\000\000\000\000\000\000\000\005\000\000\000\000\000\000\000\005\000\000\000\000\000\000\000\005\000\000\000\000\000\000\000\005\000\000\000\000\000\000\000\006\000\000\000\000\000\000\000\005\000\000\000\000\000\000\000\005\000\000\000\000\000\000\000\007\000\000\000\000\000\000\000\006\000\000\000\000\000\000\000\005\000\000\000\000\000\000\000\005\000\000\000\000\000\000\000\005\000\000\000\000\000\000\000\005\000\000\000\000\000\000\000\006\000\000\000\000\000\000\000\010\000\000\000\000\000\000\000\005\000\000\000\000\000\000\000\005\000\000\000\000\000\000\000\005\000\000\000\000\000\000\000\005\000\000\000\000\000\000\000\005\000\000\000\000\000\000\000\006\000\000\000\000\000\000\000\004\000\000\000\000\000\000\000\005\000\000\000\000\000\000\000\006\000\000\000\000\000\000\000\005\000\000\000\000\000\000\000\006\000\000\000\000\000\000\000\004\000\000\000\000\000\000\000\005\000\000\000\000\000\000\000\005\000\000\000\000\000\000\000\007\000\000\000\000\000\000\000\010\000\000\000\000\000\000\000\004\000\000\000\000\000\000\000\005\000\000\000\000\000\000\000\005\000\000\000\000\000\000\000\005\000\000\000\000\000\000\000\006\000\000\000\000\000\000\000\005\000\000\000\000\000\000\000\005\000\000\000\000\000\000\000\005\000\000\000\000\000\000\000\005\000\000\000\000\000\000\000\005\000\000\000\000\000\000\000\005\000\000\000\000\000\000\000\010\000\000\000\000\000\000\000\006\000\000\000\000\000\000\000\006\000\000\000\000\000\000\000\010\000\000\000\000\000\000\000\005\000\000\000\000\000\000\000\005\000\000\000\000\000\000\000\005\000\000\000\000\000\000\000\006\000\000\000\000\000\000\000\006\000\000\000\000\000\000\000\005\000\000\000\000\000\000\000\005\000\000\000\000\000\000\000\010\000\000\000\000\000\000\000\005\000\000\000\000\000\000\000\005\000\000\000\000\000\000\000\005\000\000\000\000\000\000\000\005\000\000\000\000\000\000\000\005\000\000\000\000\000\000\000\004\000\000\000\000\000\000\000\005\000\000\000\000\000\000\000\005\000\000\000\000\000\000\000\004\000\000\000\000\000\000\000\005\000\000\000\000\000\000\000\005\000\000\000\000\000\000\000\005\000\000\000\000\000\000\000\005\000\000\000\000\000\000\000\006\000\000\000\000\000\000\000\005\000\000\000\000\000\000\000\005\000\000\000\000\000\000\000\003\000\000\000\000\000\000\000\005\000\000\000\000\000\000\000\010\000\000\000\000\000\000\000\005\000\000\000\000\000\000\000\005\000\000\000\000\000\000\000\006\000\000\000\000\000\000\000\005\000\000\000\000\000\000\000\005\000\000\000\000\000\000\000\005\000\000\000\000\000\000\000\n\000\000\000\000\000\000\000\005\000\000\000\000\000\000\000\005\000\000\000\000\000\000\000\006\000\000\000\000\000\000\000"
      }
    }
  }
}
node {
  name: "Const_16"
  op: "Const"
  device: "/device:CPU:0"
  attr {
    key: "_output_shapes"
    value {
      list {
        shape {
          dim {
            size: 173
          }
          dim {
            size: 1
          }
        }
      }
    }
  }
  attr {
    key: "dtype"
    value {
      type: DT_DOUBLE
    }
  }
  attr {
    key: "value"
    value {
      tensor {
        dtype: DT_DOUBLE
        tensor_shape {
          dim {
            size: 173
          }
          dim {
            size: 1
          }
        }
        tensor_content: "\000\000\000\000\000\300B@\000\000\000\000\000\000B@33333\263B@\000\000\000\000\000\000B@\000\000\000\000\000\000B@\000\000\000\000\000\000B@\000\000\000\000\000@B@\000\000\000\000\000@B@\315\314\314\314\314LB@\000\000\000\000\000\200B@\000\000\000\000\000\000C@\000\000\000\000\000@B@\232\231\231\231\231YB@\000\000\000\000\000\000B@\315\314\314\314\314LB@\000\000\000\000\000\200B@\000\000\000\000\000\200B@\000\000\000\000\000@B@\315\314\314\314\314\214B@\000\000\000\000\000\200B@fffff\246B@\232\231\231\231\231\231B@\000\000\000\000\000\000B@\000\000\000\000\000\200B@\000\000\000\000\000\000B@\000\000\000\000\000\000B@\000\000\000\000\000\300B@\000\000\000\000\000\200B@\000\000\000\000\000\200B@\000\000\000\000\000@B@\000\000\000\000\000\200B@\000\000\000\000\000\000B@\000\000\000\000\000@B@\315\314\314\314\314LB@\232\231\231\231\231YB@\000\000\000\000\000\000B@\000\000\000\000\000@B@\000\000\000\000\000\200B@\000\000\000\000\000\200B@\232\231\231\231\231\331B@\000\000\000\000\000\000B@\000\000\000\000\000@B@\000\000\000\000\000\000C@\232\231\231\231\231\231B@\000\000\000\000\000\200B@ffffffB@\000\000\000\000\000@B@\000\000\000\000\000\000B@\000\000\000\000\000\200B@\000\000\000\000\000\000B@\000\000\000\000\000\200B@\000\000\000\000\000@B@\000\000\000\000\000\000B@333333B@\000\000\000\000\000@B@\000\000\000\000\000\000B@\000\000\000\000\000\200B@\000\000\000\000\000@B@33333\263B@\000\000\000\000\000\000B@\000\000\000\000\000\000B@\000\000\000\000\000\300B@\000\000\000\000\000\000B@\000\000\000\000\000\000B@\000\000\000\000\000\000B@\000\000\000\000\000@B@\000\000\000\000\000\200B@\000\000\000\000\000\000B@\000\000\000\000\000\000B@\000\000\000\000\000\200B@\000\000\000\000\000\200B@\000\000\000\000\000\200B@\000\000\000\000\000@B@\000\000\000\000\000\000B@333333B@ffffffB@\000\000\000\000\000@B@\000\000\000\000\000\000B@\000\000\000\000\000\000B@\000\000\000\000\000@B@\000\000\000\000\000@B@\000\000\000\000\000\200B@\000\000\000\000\000\200B@\000\000\000\000\000\000B@\000\000\000\000\000\200B@\000\000\000\000\000\300B@\000\000\000\000\000\300B@\000\000\000\000\000@B@\000\000\000\000\000\200B@\000\000\000\000\000@B@\000\000\000\000\000\000B@\000\000\000\000\000@B@\000\000\000\000\000\000B@\000\000\000\000\000\000B@\000\000\000\000\000@B@ffffffB@\000\000\000\000\000\000B@\000\000\000\000\000@B@\232\231\231\231\231\231B@\000\000\000\000\000\000B@\000\000\000\000\000@B@\232\231\231\231\231\231B@\000\000\000\000\000@B@\000\000\000\000\000@B@\000\000\000\000\000\200B@\000\000\000\000\000\000\034@\000\000\000\000\000@B@\000\000\000\000\000\000B@\000\000\000\000\000\000B@\000\000\000\000\000@B@\000\000\000\000\000\200B@\000\000\000\000\000\200B@\000\000\000\000\000@B@\000\000\000\000\000\000B@\232\231\231\231\231\231B@fffff\346B@\000\000\000\000\000@B@\000\000\000\000\000\000B@\000\000\000\000\000\000B@\000\000\000\000\000\000B@\000\000\000\000\000\200B@\000\000\000\000\000\000B@\000\000\000\000\000@B@\000\000\000\000\000\000B@\000\000\000\000\000@B@\000\000\000\000\000\300B@\000\000\000\000\000@B@\000\000\000\000\000\000B@\000\000\000\000\000\000B@\000\000\000\000\000@B@\000\000\000\000\000\200B@\000\000\000\000\000\000B@\000\000\000\000\000\200B@\000\000\000\000\000@B@\000\000\000\000\000\000B@\000\000\000\000\000@B@\000\000\000\000\000\000B@\000\000\000\000\000\000B@\000\000\000\000\000\000B@\000\000\000\000\000\000B@\000\000\000\000\000\000B@\000\000\000\000\000@B@\000\000\000\000\000@B@\000\000\000\000\000\000B@\000\000\000\000\000\000B@\000\000\000\000\000\000B@\000\000\000\000\000\000B@\000\000\000\000\000\000B@\000\000\000\000\000\000B@\000\000\000\000\000\200B@\000\000\000\000\000\000B@\000\000\000\000\000\000B@\000\000\000\000\000\000B@\000\000\000\000\000\200B@\000\000\000\000\000\000B@\000\000\000\000\000\000B@\000\000\000\000\000\200B@\000\000\000\000\000\300B@\000\000\000\000\000\000B@\232\231\231\231\231\031B@\000\000\000\000\000\000B@\000\000\000\000\000\000B@\000\000\000\000\000\000B@\000\000\000\000\000@B@\000\000\000\000\000\000B@\000\000\000\000\000\200B@\000\000\000\000\000\000B@\000\000\000\000\000\000B@\000\000\000\000\000@B@\000\000\000\000\000@B@\232\231\231\231\231\231B@\000\000\000\000\000\000B@\000\000\000\000\000\000B@"
      }
    }
  }
}
node {
  name: "Const_17"
  op: "Const"
  device: "/device:CPU:0"
  attr {
    key: "_output_shapes"
    value {
      list {
        shape {
          dim {
            size: 173
          }
          dim {
            size: 1
          }
        }
      }
    }
  }
  attr {
    key: "dtype"
    value {
      type: DT_INT64
    }
  }
  attr {
    key: "value"
    value {
      tensor {
        dtype: DT_INT64
        tensor_shape {
          dim {
            size: 173
          }
          dim {
            size: 1
          }
        }
